, 595953
. 421477
і 232430
ў 221988
на 205028
у 182103
— 163173
з 128809
( 92842
) 92441
не 75690
ў@@ 68488
па 67170
па@@ 65792
на@@ 65375
ра@@ 60849
да 58428
што 58131
да@@ 55045
за@@ 54735
% 53680
а@@ 51826
ць 50058
ка@@ 48952
лі@@ 48299
а 46802
аб 45471
кі 45005
&apos; 44758
Беларусі 44021
най 42392
у@@ 41408
ны 40764
за 40582
нага 40490
лі 40133
ка 39301
та@@ 39143
года 39010
ва@@ 37785
з@@ 37663
ма@@ 37612
е 36866
1 36818
пра@@ 36054
ных 34943
пры@@ 34860
ва 34762
м 34221
я 33266
вы@@ 33165
ні@@ 32725
як 32369
: 32351
цыі 31944
са@@ 31663
і@@ 31481
га@@ 30975
с@@ 30892
я@@ 30706
т 29815
ад@@ 29559
ы 29531
ты@@ 29343
ла 29227
А@@ 29095
ты 28831
ні 28766
не@@ 28381
для 28212
-@@ 27981
ча@@ 27933
ку 27561
вы 27451
ві@@ 27181
й@@ 27124
ныя 26973
ба@@ 26706
ным 26591
к 26550
ла@@ 25873
рэ@@ 25353
ш@@ 25319
н 25288
р 25245
й 25094
ста@@ 24990
2 24255
пера@@ 23430
ін@@ 23265
т@@ 23167
таксама 23072
цы 22964
мі@@ 22791
су@@ 22572
ная 22514
мі 22218
ро@@ 22180
3 22061
мы 22002
м@@ 21985
кан@@ 21850
та 21583
ня 21448
гэта 21258
ад 21164
д@@ 21116
цца 20589
якія 20512
к@@ 20507
вых 20435
ры@@ 20432
рублёў 20365
сі@@ 20272
с 20199
вання 20182
н@@ 20083
6 19905
ваць 19843
С@@ 19826
це 19635
4 19394
чы@@ 19330
аб@@ 19176
тэ@@ 19128
ён 18936
ту 18882
скай 18664
ю 18620
э@@ 18526
паводле 18422
тым 18305
юць 18099
2@@ 17812
таў 17788
ня@@ 17748
каў 17492
га 17358
цыя 17230
7 17106
ль@@ 17054
ша@@ 16862
р@@ 16852
ё@@ 16772
ы@@ 16768
; 16751
млн 16677
раз@@ 16523
больш 16492
ц@@ 16463
ле@@ 16431
дзе 16423
3@@ 16375
будзе 16348
п@@ 16266
5 16160
скага 16151
вай 16006
яго 15951
ля@@ 15916
8 15773
9 15761
ве@@ 15479
ецца 15464
мо@@ 15070
ых 15016
ч@@ 15009
П@@ 15004
іх 14842
но@@ 14808
ан@@ 14801
ды@@ 14748
Б@@ 14719
лася 14712
вя@@ 14694
б@@ 14533
пі@@ 14509
бу@@ 14468
во@@ 14463
4@@ 14260
х 14241
чы 14182
д 14050
пры 14048
Д@@ 13991
ко@@ 13898
ар@@ 13893
тра@@ 13820
сці 13802
ды 13740
х@@ 13656
8@@ 13582
л@@ 13579
нае 13577
ха@@ 13529
ваў 13466
насці 13455
там 13425
9@@ 13415
му 13313
7@@ 13304
са 13294
бі@@ 13118
Беларусь 13006
шы@@ 12907
ліся 12828
е@@ 12780
ці 12748
ж@@ 12724
Ка@@ 12721
л 12715
цыю 12681
кам 12677
Г@@ 12663
ю@@ 12656
ф@@ 12651
гі@@ 12628
пад@@ 12590
ска@@ 12563
.@@ 12556
дзі@@ 12535
пра 12496
ўся 12443
долараў 12425
млн. 12408
І@@ 12391
дэ@@ 12385
тыс 12373
насць 12238
чных 12196
кі@@ 12150
тыс. 12137
У@@ 12077
г@@ 12077
5@@ 12050
ру@@ 12046
жы@@ 12019
ванне 11978
ства 11930
вага 11829
скі 11791
ме@@ 11701
жа@@ 11697
прэс-служба 11529
М@@ 11420
6@@ 11410
зна@@ 11291
вае 11282
ыя 11260
ен@@ 11233
ўва@@ 11225
ве 11136
ці@@ 11135
пада@@ 11124
няў 11106
ма 11075
фі@@ 11059
Н@@ 10968
гу 10951
К@@ 10935
дзе@@ 10897
які 10885
ту@@ 10826
склаў 10759
дзя@@ 10745
мен@@ 10687
паведамляе 10677
годзе 10663
пер@@ 10590
дз@@ 10535
ся@@ 10506
Лукашэнка 10505
гэтым 10455
на-@@ 10437
0 10434
В@@ 10332
ліку 10282
чнага 10235
Расіі 10233
выра@@ 10026
ную 10016
выя 9954
Мінску 9934
даў 9921
заявіў 9870
су 9795
чнай 9771
скім 9762
камі 9760
чым 9756
бы@@ 9754
лё@@ 9739
ванні 9624
ўз@@ 9621
ду 9609
раў 9601
рас@@ 9578
се@@ 9553
10 9521
ку@@ 9466
нем 9448
нымі 9362
г 9306
ло@@ 9303
кай 9268
до@@ 9072
пла@@ 9050
гу@@ 9000
права@@ 8989
ст@@ 8977
так 8970
сц@@ 8905
наў 8793
сказаў 8788
але 8757
зі@@ 8742
сты@@ 8733
мя@@ 8704
цы@@ 8703
арганіза@@ 8698
будуць 8692
калі 8675
сць 8660
ваны 8652
ду@@ 8608
быў 8516
юцца 8506
по@@ 8497
1@@ 8472
гэтага 8470
вым 8464
мы@@ 8456
лю@@ 8337
ь@@ 8320
Х@@ 8318
нах 8283
ары@@ 8229
слоў 8218
нам 8162
было 8091
ль 8031
ву@@ 8003
20 7989
падчас 7948
прэзідэнта 7934
ках 7927
скіх 7898
віч 7897
былі 7895
саў 7889
ус@@ 7873
эн@@ 7847
ём 7824
ак@@ 7801
гі 7791
му@@ 7752
Ма@@ 7739
Т@@ 7729
льных 7711
паліты@@ 7685
ская 7682
тных 7665
хо@@ 7616
дзяржавы 7608
бо@@ 7599
паў@@ 7596
0,@@ 7548
хі@@ 7526
ЗША 7482
таго 7461
пасля 7459
ну@@ 7449
краіны 7403
лы 7393
вана 7385
№ 7359
тар@@ 7353
млрд. 7346
гра@@ 7304
кла@@ 7297
зя@@ 7276
цый 7275
Мін@@ 7193
30 7192
ца 7119
крэды@@ 7091
ем 7082
ця@@ 7030
Ф@@ 7017
стра@@ 6979
Бел@@ 6934
15 6903
БелаПАН 6896
пар@@ 6893
чыць 6842
чан@@ 6823
чным 6813
краін 6795
ву 6793
толькі 6792
якая 6781
рам 6780
коў 6764
о@@ 6760
кіраўнік 6725
2011 6714
2010 6686
супрацоўніцтва 6655
бы 6613
Ч@@ 6605
чых 6598
ўні@@ 6592
бра@@ 6546
2012 6525
най@@ 6521
прэ@@ 6495
чэння 6478
пару@@ 6454
студзеня 6441
Ш@@ 6439
каб 6438
валі 6433
яе 6429
фінанса@@ 6424
ь 6400
працы 6394
цэ@@ 6359
З@@ 6349
ра 6344
ючы 6343
прызна@@ 6334
С 6319
ме 6305
інфарма@@ 6300
б 6285
льнага 6266
яны 6263
спецыя@@ 6226
Аляксандр 6210
ч 6185
ян@@ 6179
ван@@ 6165
паведаміла 6161
снежня 6160
12 6133
ваецца 6127
льнай 6123
тэрмі@@ 6120
ман@@ 6114
ж 6108
чаны 6102
част@@ 6101
го@@ 6101
тыў@@ 6098
льні@@ 6088
чныя 6086
чны 6077
вобласці 6053
Са@@ 6001
паведаміў 5982
нар@@ 5969
або 5967
5,@@ 5964
працоў@@ 5959
Я@@ 5951
зая@@ 5950
дакумен@@ 5917
развіцця 5907
год@@ 5907
Э@@ 5904
сувязі 5898
11 5893
10@@ 5892
арганізацыі 5887
Ра@@ 5877
мая 5873
інфармацыі 5841
вер@@ 5835
цыя@@ 5825
аў@@ 5812
тах 5800
чалавек 5785
2013 5783
ле 5732
чай 5729
ран@@ 5728
Л@@ 5728
3,@@ 5710
ура@@ 5704
2009 5694
вар@@ 5692
нава@@ 5688
паведамілі 5678
ім 5665
0@@ 5648
ліпеня 5632
каман@@ 5630
то@@ 5626
пад 5622
ля 5621
беларускага 5617
зе 5613
ню 5603
год 5592
кра@@ 5586
вытворчасці 5584
гадоў 5584
СНД 5576
міжнарод@@ 5531
уз@@ 5521
спра@@ 5508
лаў 5506
ш 5486
На@@ 5481
яўляецца 5476
ор@@ 5455
якіх 5434
кастрычніка 5433
пя@@ 5428
со@@ 5411
А 5406
спа@@ 5403
6,@@ 5399
ход@@ 5395
сва@@ 5393
спраў 5388
прадукцыі 5382
бе@@ 5380
курс 5376
паста@@ 5375
чэнне 5370
час 5367
4,@@ 5341
25 5341
14 5311
чын@@ 5272
+ 5269
цый@@ 5268
мае 5263
ані@@ 5259
пара@@ 5253
пе@@ 5231
сферы 5226
верасня 5218
вах 5213
быць 5209
тэле@@ 5194
16 5191
чэрвеня 5185
19 5182
прэм 5181
50 5181
млрд 5179
была 5167
ула@@ 5158
пытанні 5157
паміж 5153
ры 5152
сакавіка 5149
яў 5148
злачын@@ 5142
13 5141
прыня@@ 5136
8,@@ 5130
вяр@@ 5127
сёння 5123
гэты 5119
скла@@ 5112
оў 5106
падкрэсліў 5099
аўтамабі@@ 5080
сярэд@@ 5080
дзейнасці 5074
лістапада 5074
асноў@@ 5072
гар@@ 5066
красавіка 5050
наступ@@ 5042
чаць 5037
цыйных 5035
гэтай 5026
жніўня 5024
ым 5022
дам 5020
нен@@ 5018
ца@@ 5002
дан@@ 4995
стан@@ 4990
цыяй 4989
сустрэчы 4980
цц@@ 4973
агуль@@ 4970
17 4965
тан@@ 4959
ст 4940
ўлен@@ 4940
К 4937
нення 4932
ер@@ 4931
шы 4929
іншых 4912
камітэта 4909
се 4905
тнага 4900
можа 4898
п 4897
18 4895
e@@ 4889
сы 4889
лен@@ 4875
бя@@ 4874
адкры@@ 4872
запа@@ 4856
o@@ 4853
каля 4851
беларускіх 4850
месца 4845
t@@ 4844
наву@@ 4831
чага 4830
2008 4815
шай 4810
вая 4809
ўля@@ 4809
бан@@ 4804
цаў 4795
лу@@ 4794
тэхні@@ 4791
гад@@ 4785
адбы@@ 4764
яшчэ 4762
саюза 4757
Р@@ 4747
працэ@@ 4741
i@@ 4724
пача@@ 4718
9,@@ 4717
тко@@ 4715
ке@@ 4714
трэ@@ 4709
Беларус@@ 4703
сту@@ 4702
дзяржаў@@ 4700
палі@@ 4693
прэзідэн@@ 4693
Савета 4691
сродкаў 4684
адпавед@@ 4676
/ 4676
ваныя 4673
без 4666
Міністэрства 4654
чна 4645
пы@@ 4635
каза@@ 4631
тнай 4626
таму 4624
эканамі@@ 4613
галоў@@ 4612
жа 4612
ўкі 4609
параўнанні 4608
павы@@ 4603
зы@@ 4601
ваюць 4592
вары@@ 4552
студзені 4550
рашэнне 4547
Мінск 4544
тава@@ 4543
ўлена 4542
грамадзян 4539
раней 4534
7,@@ 4531
прэзідэнт 4524
Кі@@ 4524
прабле@@ 4521
ААТ 4519
чана 4504
арганізацый 4493
кампаніі 4486
лу 4483
гандлё@@ 4481
шэння 4481
замежных 4479
19@@ 4472
няга 4469
афіцый@@ 4463
краіне 4454
сла@@ 4450
тара 4444
скія 4444
беларус@@ 4439
пу@@ 4435
рубля 4414
кана@@ 4407
ган@@ 4397
лютага 4397
склала 4389
бяспекі 4388
зні@@ 4384
адзначыў 4377
праве@@ 4374
джа@@ 4370
ваных 4367
гаворыцца 4367
тыя 4360
яна 4350
зва@@ 4344
мяш@@ 4344
рэалізацыі 4336
вызна@@ 4332
беларускай 4316
ну 4314
дзяржаў 4308
дру@@ 4307
24 4300
чае 4299
еўра 4295
мала@@ 4292
ся 4291
жыл@@ 4278
чэнні 4275
кую 4274
нія 4270
Ю@@ 4263
тры 4263
нара@@ 4262
кім 4254
аў 4249
стваў 4232
дзел@@ 4224
трэба 4222
жан@@ 4217
стане 4210
джан@@ 4208
выбар@@ 4203
гіі 4192
зада@@ 4192
тэрыторыі 4192
ніх 4187
тэн@@ 4169
кіраўні@@ 4169
падтрым@@ 4165
нас 4161
.00 4159
зу@@ 4155
эканомікі 4155
няй 4147
тар 4145
`@@ 4139
ліза@@ 4137
неабход@@ 4134
23 4131
фак@@ 4119
транспар@@ 4112
Мінска 4109
кры@@ 4107
22 4104
дзярж@@ 4090
дэн@@ 4089
сумес@@ 4089
мін@@ 4086
21 4080
Еўра@@ 4074
ўлены 4068
гру@@ 4065
шэнні 4062
устано@@ 4060
ўра@@ 4058
доў@@ 4055
ц 4054
про@@ 4041
шчы@@ 4037
дачыненні 4031
28 4025
кія 4014
гаспадар@@ 4013
Рэспублікі 4006
йш@@ 4005
адносі@@ 4004
яй 3999
шэнне 3996
валю@@ 3996
пунк@@ 3990
атрыма@@ 3989
апера@@ 3986
ствы 3980
00 3978
27 3971
Ва@@ 3970
льнікаў 3961
ам 3959
ваен@@ 3957
кар@@ 3951
чу 3926
1.@@ 3926
цяпер 3925
грамад@@ 3925
важ@@ 3923
26 3921
ліч@@ 3917
дзен@@ 3911
удзельні@@ 3909
Па@@ 3907
гандлю 3900
цтва 3896
цт@@ 3894
тамі 3893
род@@ 3891
Ц@@ 3889
ступ@@ 3888
прапанова 3884
тары@@ 3882
ско@@ 3882
гады 3881
сам 3877
мер@@ 3876
шко@@ 3875
прадук@@ 3873
апош@@ 3871
боль@@ 3866
эк@@ 3865
беларускі 3863
тавараў 3861
a@@ 3847
це@@ 3846
тоў@@ 3845
нім 3831
зра@@ 3800
вё@@ 3798
вельмі 3795
шан@@ 3793
след@@ 3792
будаўніцтва 3790
павінны 3788
ўла@@ 3783
ва-@@ 3781
матэрыя@@ 3779
выніках 3778
расій@@ 3777
зо@@ 3775
Мі@@ 3775
Віцеб@@ 3767
попыт 3767
нак 3759
зда@@ 3750
высо@@ 3745
жэн@@ 3743
моў@@ 3727
акрамя 3720
менш 3720
адзін 3719
міністра 3716
лення 3712
П 3691
ўсіх 3688
пачатку 3674
вую 3668
адміністра@@ 3650
лагі@@ 3646
прадпрыемстваў 3645
органаў 3644
Е@@ 3643
намі 3625
веда@@ 3625
абмерка@@ 3622
зазна@@ 3621
сістэ@@ 3614
межах 3614
цкага 3611
адзі@@ 3611
ванняў 3611
сацыя@@ 3608
кая 3606
знеш@@ 3601
выя@@ 3601
За@@ 3599
ё 3598
сель@@ 3593
прапано@@ 3591
поў@@ 3587
два 3587
Лі@@ 3577
ўмо@@ 3564
Ба@@ 3562
каз@@ 3560
2,@@ 3559
супрацоўні@@ 3556
энер@@ 3555
29 3543
шэ@@ 3543
тон 3537
нацыяналь@@ 3537
ель@@ 3532
Ж@@ 3530
Украіны 3529
тое 3524
гэ@@ 3523
ста 3521
накіра@@ 3520
клад@@ 3520
кошт 3520
звестак 3518
праві@@ 3515
аднак 3515
ука@@ 3514
гада@@ 3509
ўжо 3506
рэн@@ 3506
насельніцтва 3504
рамі 3501
наві@@ 3494
плануецца 3487
дзены 3481
гор@@ 3477
ек@@ 3477
маты@@ 3470
Б 3468
тых 3466
тры@@ 3466
Нацыяналь@@ 3464
пазі@@ 3462
зазначыў 3457
тныя 3456
камен@@ 3455
дзена 3454
ўлення 3453
міну@@ 3451
2014 3451
стаў 3449
дня 3448
саю@@ 3447
шым 3443
выніку 3443
вялі@@ 3441
ую 3439
ез@@ 3434
роў@@ 3434
баў 3429
іны 3421
даста@@ 3405
кам@@ 3402
паслуг 3398
ча 3397
сітуа@@ 3373
прадпрыем@@ 3372
МУС 3370
льныя 3364
гро@@ 3363
боку 3363
забяспе@@ 3360
праек@@ 3359
пен@@ 3348
сама@@ 3346
пытанне 3345
праў@@ 3345
колькасць 3338
ўстано@@ 3338
вод@@ 3336
лічыць 3334
жы 3325
збор@@ 3324
ёсць 3322
будаўні@@ 3318
ней@@ 3315
кае 3314
туры 3308
чэ@@ 3307
праз 3304
цё@@ 3301
папярэд@@ 3300
кур@@ 3299
воз@@ 3293
асоб 3292
ЕС 3292
сут@@ 3286
паведамленні 3285
гуль@@ 3281
кага 3280
мар@@ 3279
прэс-@@ 3278
цяж@@ 3269
сь 3269
бюджэ@@ 3268
Р 3266
Га@@ 3265
адна@@ 3261
аль@@ 3260
доб@@ 3258
прыватнасці 3255
інтэр@@ 3251
ўрада 3250
льны 3250
сп@@ 3246
40 3244
комплек@@ 3241
могуць 3241
МЗС 3240
200@@ 3235
го 3234
од@@ 3233
дні 3220
ненні 3218
чу@@ 3217
перада@@ 3216
раёна 3216
шага 3215
выкарыстан@@ 3214
перыяд 3214
ге@@ 3211
стар@@ 3210
скі@@ 3209
цыйнага 3208
Ар@@ 3205
йшлі 3195
мерка@@ 3191
дуць 3187
кіраўніка 3185
працягу 3180
цкай 3179
дар@@ 3173
насцю 3172
фон@@ 3169
Вя@@ 3166
цыйнай 3165
лан@@ 3162
рынку 3159
маль@@ 3158
чыя 3155
ўшы 3154
пэў@@ 3154
сіі 3149
13@@ 3148
праца@@ 3143
кары@@ 3138
паведамля@@ 3133
гэтыя 3132
трлн. 3131
ўдзельні@@ 3130
s@@ 3128
наш@@ 3128
мерапрыем@@ 3126
пус@@ 3124
ск@@ 3122
намеснік 3122
У 3120
чыў 3113
спы@@ 3112
нагадаем 3111
вацца 3108
сл@@ 3106
гле@@ 3101
грамадзя@@ 3100
парадку 3093
права 3093
асоб@@ 3089
абароны 3084
дэлега@@ 3081
ненне 3074
маюць 3069
ел@@ 3066
выканан@@ 3062
таргоў 3057
гала@@ 3055
прагра@@ 3047
Сі@@ 3044
адпаведнасці 3043
ру 3041
нека@@ 3033
паказчы@@ 3032
вет@@ 3026
кіх 3025
часо@@ 3021
асо@@ 3019
знізіўся 3015
ўленне 3011
правядзення 3009
све@@ 3005
рэаліза@@ 3004
Сяргей 3004
дзень 3001
сь@@ 3000
вак 2999
шча@@ 2998
тра 2998
нё@@ 2992
банка 2987
пас@@ 2984
атрыман@@ 2980
хут@@ 2977
Дынама 2975
льным 2972
ква@@ 2970
гля@@ 2970
экспер@@ 2967
праект 2965
усе 2953
20@@ 2948
зно@@ 2945
31 2941
затрыман@@ 2939
нямі 2936
стве 2935
сен@@ 2935
тро@@ 2927
разгля@@ 2927
умо@@ 2925
ера@@ 2924
дома 2923
вымі 2920
17@@ 2918
супраць 2917
тары 2913
сій@@ 2913
ніі 2904
разам 2903
калі@@ 2902
Ку@@ 2898
замеж@@ 2895
вала 2892
15@@ 2891
вой 2883
павінна 2882
рэспублікан@@ 2880
сных 2879
ях 2878
пош@@ 2878
міністраў 2877
біць 2871
журналіста@@ 2871
практы@@ 2870
сярод 2866
спі@@ 2865
2.@@ 2858
вадзіцел@@ 2857
банк 2856
ленні 2853
мерапрыемстваў 2852
патраба@@ 2852
падпі@@ 2851
мясцо@@ 2849
фіна@@ 2849
чалавека 2843
сто@@ 2843
дзяржаўнай 2837
выда@@ 2829
дра@@ 2829
Дзяржаў@@ 2827
ацэн@@ 2827
фа@@ 2825
эканамічнай 2825
сваю 2824
адзна@@ 2821
16@@ 2820
пала@@ 2816
прадстаўні@@ 2810
руху 2807
дзяржа@@ 2806
шэн@@ 2804
заклю@@ 2797
першым 2796
паве@@ 2794
З 2793
перамо@@ 2790
пасяджэнні 2788
камісіі 2787
першы 2786
гадо@@ 2785
ажыцц@@ 2779
старшыня 2778
сы@@ 2778
r@@ 2776
нях 2776
прамысло@@ 2774
сістэмы 2770
пачатак 2767
разу 2761
пытаннях 2760
шае 2758
гна@@ 2750
сці@@ 2750
гарад@@ 2747
абаро@@ 2746
бе 2744
14@@ 2742
Аб 2740
падпісан@@ 2739
сустрэ@@ 2739
Беларускай 2738
зацыі 2736
партнё@@ 2734
эфектыў@@ 2733
віча 2731
тэр@@ 2729
раё@@ 2727
магчы@@ 2726
кож@@ 2724
ўнутра@@ 2719
жыцц@@ 2719
куп@@ 2715
ува@@ 2715
УС 2712
ажыццяўля@@ 2711
рэжы@@ 2711
прычы@@ 2705
гэтых 2701
сце 2699
аналагі@@ 2699
нафта@@ 2697
праграмы 2691
кірун@@ 2688
якасці 2686
рэа@@ 2684
кандыда@@ 2682
рон@@ 2681
лік@@ 2681
крыміналь@@ 2676
чэн@@ 2675
вуліцы 2675
актыў@@ 2675
паграні@@ 2673
знач@@ 2672
18@@ 2671
групы 2667
праваабарон@@ 2666
хто 2666
Ся@@ 2664
дэмакра@@ 2663
месц@@ 2662
спар@@ 2662
прадстаўнікоў 2659
эканамічнага 2654
прэс-канферэн@@ 2648
ген@@ 2648
ей 2646
леп@@ 2645
пака@@ 2644
пройдзе 2642
тран@@ 2642
орга@@ 2641
ленне 2640
эра@@ 2638
пагад@@ 2637
чная 2637
сход@@ 2631
гла@@ 2629
заста@@ 2629
l@@ 2628
цкіх 2626
2-@@ 2625
прамысловасці 2623
сер@@ 2621
бяспе@@ 2617
ціка@@ 2613
якім 2613
199@@ 2613
кампанія 2613
платы 2608
той 2605
рады@@ 2603
візі@@ 2602
аўта@@ 2601
тай 2601
расійскага 2598
актыві@@ 2596
даро@@ 2595
ствам 2594
u@@ 2591
в 2589
прадпрыемства 2587
свету 2586
маг@@ 2585
клю@@ 2583
між@@ 2582
пасту@@ 2575
кру@@ 2575
ектаў 2573
заклі@@ 2572
дзяржаўнага 2571
людзей 2570
дарож@@ 2570
ыі 2566
чака@@ 2566
ўда@@ 2563
рост 2560
прадпрымальні@@ 2558
то 2556
бізне@@ 2556
меры 2554
Кан@@ 2553
чэмпіянату 2552
шля@@ 2552
галі@@ 2552
студзень 2551
вызва@@ 2549
фарміра@@ 2547
пакуль 2546
трыма@@ 2544
яві@@ 2541
неабходна 2540
зу 2540
ск 2537
пракура@@ 2534
ёма@@ 2534
дадатко@@ 2533
ўскага 2532
дын@@ 2530
начальні@@ 2528
арт 2528
прадстаўнікі 2525
абвінава@@ 2523
праекта 2521
тур@@ 2521
долара 2521
прыва@@ 2520
разу@@ 2517
вен@@ 2517
мета@@ 2516
ўсё 2514
рабо@@ 2514
дзеянні 2512
1-@@ 2512
Расія 2511
тным 2510
дзей@@ 2509
павялічы@@ 2505
ўленні 2504
буй@@ 2499
згодна 2499
праектаў 2496
в@@ 2495
якой 2491
спек@@ 2491
тны 2489
выні@@ 2487
працаваць 2487
сія 2487
генера@@ 2487
заха@@ 2486
чылі 2486
хар@@ 2485
гато@@ 2484
эр@@ 2482
незакон@@ 2481
старшыні 2480
шыя 2479
аператыў@@ 2478
вога 2476
лін 2474
іншыя 2474
маса@@ 2474
сан@@ 2473
імпар@@ 2472
леж@@ 2469
іну 2468
пл@@ 2467
ўскі 2467
свабод@@ 2461
Да@@ 2457
бір@@ 2455
ску 2452
бор@@ 2452
фарма@@ 2452
бара@@ 2452
цця 2451
расійскіх 2451
цо@@ 2448
краі@@ 2447
Пар@@ 2447
беларускія 2441
2007 2440
ур@@ 2439
цыях 2437
аховы 2434
галіне 2434
розні@@ 2433
абмежа@@ 2431
савета 2427
ць@@ 2426
ваюцца 2425
машы@@ 2423
ткі 2420
бараць@@ 2418
кантролю 2417
наф@@ 2415
коль@@ 2415
конкур@@ 2413
сем 2410
шу@@ 2409
Лукашэнкі 2408
міліцыі 2407
валют@@ 2405
службо@@ 2404
інвесты@@ 2399
цэнтра@@ 2396
пашы@@ 2396
ведам@@ 2394
свя@@ 2392
грамадзян@@ 2387
памеры 2387
дына@@ 2387
буда@@ 2385
Кры@@ 2384
пасажы@@ 2384
так@@ 2382
фіка@@ 2381
Уладзімір 2381
наро@@ 2379
якое 2377
° 2376
ед@@ 2375
рэсур@@ 2375
лума@@ 2375
няма 2368
зар@@ 2364
адукацыі 2364
намесні@@ 2363
скае 2363
РФ 2362
міністр 2361
вамі 2360
c@@ 2360
тут 2360
выклю@@ 2356
ымі 2355
міністэр@@ 2353
дзяцей 2353
ўдзел 2352
ходаў 2351
рэгіё@@ 2349
паса@@ 2347
Еў@@ 2346
шта@@ 2340
цкі 2338
даў@@ 2335
ўсе 2332
месцы 2331
канцэр@@ 2329
стры@@ 2323
хоў@@ 2319
назіра@@ 2318
цан@@ 2313
Рэспублі@@ 2311
стала 2311
Нацыянальнага 2308
працу@@ 2307
сусвет@@ 2306
міжнародных 2305
чарго@@ 2304
перыя@@ 2302
наму 2301
йных 2301
знаходзіцца 2300
ковых 2299
Та@@ 2298
паўна@@ 2296
0-@@ 2295
беларуска-@@ 2295
дапамо@@ 2294
кіравання 2292
ужо 2290
магчымасць 2289
эта@@ 2288
зарэгістра@@ 2287
скую 2286
лік 2285
лета@@ 2284
абла@@ 2283
Мытнага 2283
роў 2283
месяцаў 2282
жэ@@ 2280
он@@ 2278
заня@@ 2277
наяў@@ 2277
далей@@ 2276
гора@@ 2272
меся@@ 2269
рын@@ 2268
Ві@@ 2265
ху 2265
паля@@ 2265
Магілё@@ 2262
кіраўнікоў 2261
дж@@ 2261
слу@@ 2260
Паў@@ 2260
можна 2259
прыя@@ 2257
збро@@ 2257
прыкладна 2256
ААН 2256
свят@@ 2255
еўрапей@@ 2255
працяг@@ 2253
фар@@ 2250
рэгуля@@ 2250
Еўропы 2249
прадугледж@@ 2248
кантро@@ 2246
об@@ 2245
складае 2244
Пу@@ 2243
выканання 2239
дзі 2238
еў 2237
аляксандр 2237
транспарту 2236
заба@@ 2236
ба 2233
лю 2233
камі@@ 2232
60 2232
палітыкі 2232
Беларуссю 2232
Цэн@@ 2230
Аляк@@ 2230
акцыі 2230
мер 2229
стой@@ 2229
інвестыцый 2227
раз 2226
гэта@@ 2225
патрэ@@ 2220
экспарт 2219
што@@ 2218
нены 2217
сітуацыі 2217
вай@@ 2216
новых 2216
Аляксандра 2214
гарод@@ 2213
5-@@ 2212
вырас 2211
склада@@ 2210
асно@@ 2209
змен@@ 2209
нер@@ 2208
дырэк@@ 2208
кампані@@ 2201
нікі 2200
ход 2197
вядзен@@ 2196
дэмі@@ 2196
гія 2195
парад@@ 2193
прапа@@ 2193
загіну@@ 2192
пяць 2192
перад 2191
гара@@ 2190
руб@@ 2189
распача@@ 2187
удзел 2181
старшы@@ 2180
парламен@@ 2180
дзвюх 2178
электра@@ 2178
ванай 2177
маршру@@ 2175
маў 2174
пля@@ 2172
разі@@ 2170
мані@@ 2170
праводзі@@ 2169
Вік@@ 2165
стыту@@ 2164
ініцыя@@ 2164
цяг@@ 2163
э 2160
прадста@@ 2160
правер@@ 2160
інспек@@ 2160
Вы@@ 2160
адзнача@@ 2159
павінен 2159
дасягну@@ 2159
правя@@ 2156
зам 2156
Гомель@@ 2156
двухба@@ 2155
мэ@@ 2154
заканадаўства 2153
блі@@ 2152
тараў 2152
дыя@@ 2150
завяр@@ 2146
Літ@@ 2143
чную 2143
апрача 2141
Расі@@ 2140
складзе 2139
нікаў 2139
Міжнарод@@ 2137
звязан@@ 2134
аба@@ 2133
мат@@ 2132
100 2131
суд 2128
Мінгарвыканкама 2128
міні@@ 2124
такіх 2122
скара@@ 2121
ніць 2120
дакументаў 2120
незалеж@@ 2119
ун@@ 2119
Брэ@@ 2118
цэн 2118
А.@@ 2114
здароўя 2113
тычных 2113
аса@@ 2111
здо@@ 2110
нік 2109
агульнай 2109
дзя 2108
Гродзен@@ 2106
справа 2104
ёму 2104
насц@@ 2104
пацярпел@@ 2102
перавы@@ 2102
цель@@ 2101
мяжы 2100
ака@@ 2099
адбудзецца 2098
затрыманы 2097
маца@@ 2096
уб@@ 2096
Польш@@ 2095
СМІ 2094
рання 2093
ство@@ 2093
туры@@ 2093
дзяржаўных 2092
жу 2092
крызі@@ 2091
фізі@@ 2090
3-@@ 2090
шэраг 2090
сайце 2086
падрыхтоў@@ 2086
клі@@ 2085
сіл 2083
бры@@ 2082
фе@@ 2076
тако@@ 2073
павялічыўся 2071
шэнняў 2071
камп@@ 2071
наль@@ 2069
апазі@@ 2066
турні@@ 2064
мові@@ 2064
дзеян@@ 2063
тор@@ 2063
раёне 2063
ваннем 2061
торыя 2061
фор@@ 2061
дзейні@@ 2059
колькасці 2056
адпа@@ 2053
партыі 2053
цэны 2051
ліста@@ 2050
прэс-службы 2049
Андрэй 2049
росту 2049
вынікі 2048
віку 2048
зако@@ 2048
міль@@ 2045
фо@@ 2042
уда@@ 2042
выпус@@ 2040
гаспада@@ 2039
чынам 2039
Мар@@ 2038
плану@@ 2038
звярну@@ 2038
Фран@@ 2037
дэк@@ 2036
эканомі@@ 2033
эрацыі 2032
сродкі 2031
ша 2029
сцю 2026
грашо@@ 2025
I@@ 2023
абавяз@@ 2021
энерге@@ 2020
павялі@@ 2016
мало@@ 2016
паслугі 2015
віда@@ 2011
стана 2010
пытанняў 2010
міна@@ 2009
лена 2008
яднан@@ 2003
буду@@ 2002
іну@@ 2001
n@@ 2001
дах 2000
ач@@ 1998
мат 1998
такім 1996
наз@@ 1995
дару@@ 1995
еных 1995
вытвор@@ 1985
дэр@@ 1982
Мінскай 1982
тысяч 1980
Лукашэн@@ 1976
рэда@@ 1975
лей 1972
Ін@@ 1971
матчы 1971
Мя@@ 1970
тай@@ 1969
Ан@@ 1968
? 1967
вынікаў 1967
сё@@ 1966
мяня@@ 1965
сёлета 1964
цу 1962
КД@@ 1962
моц@@ 1959
сты 1958
пастаў@@ 1958
ямі 1957
трох 1955
лімпі@@ 1955
рэйтын@@ 1953
расійскі 1951
забеспячэння 1950
ап@@ 1946
ровень 1946
стан 1945
зан@@ 1943
сваёй 1942
ляў 1942
Пра@@ 1942
расследа@@ 1941
тку 1941
Фед@@ 1940
но 1939
ключа@@ 1938
зіі 1937
некалькі 1937
прайш@@ 1937
стварэнні 1936
ах@@ 1936
ўскай 1936
выступа@@ 1932
інтарэ@@ 1932
ходзе 1931
дае 1931
ўчы@@ 1929
Ла@@ 1929
становішча 1928
пастаян@@ 1927
канструк@@ 1927
еха@@ 1922
кро@@ 1921
службы 1921
супрацоўнікі 1921
вары 1918
ем@@ 1917
дазво@@ 1916
тэк@@ 1916
мож@@ 1915
раны 1915
шымі 1915
краіна 1915
цэнтр 1913
70 1913
думку 1912
харчо@@ 1910
інве@@ 1909
Маскве 1907
пазба@@ 1906
версі@@ 1906
метраў 1904
прад@@ 1903
маёма@@ 1903
кімі 1903
бок 1901
сцей 1900
гаспадаркі 1898
экспар@@ 1894
чо@@ 1893
юрыды@@ 1892
яд@@ 1892
чыгу@@ 1891
працу 1891
уні@@ 1889
груза@@ 1888
стат@@ 1886
бу 1886
правоў 1885
сек@@ 1885
сталіцы 1884
работ 1884
працэн@@ 1882
неда@@ 1880
АБСЕ 1880
пасяджэння 1879
падкрэслі@@ 1878
статысты@@ 1876
перспекты@@ 1873
беларусь 1872
мілі@@ 1872
мно@@ 1871
дзейнасць 1869
КК 1869
капіта@@ 1868
прыцяг@@ 1866
міністра@@ 1866
зму 1864
над@@ 1864
выкарысто@@ 1864
віцэ-@@ 1862
Ры@@ 1858
выказаў 1857
алкаго@@ 1856
выканкама 1856
тавара@@ 1853
чаў 1852
культуры 1852
О@@ 1852
днём 1851
Садружнасці 1851
супраць@@ 1850
выпадку 1850
сябе 1849
кале@@ 1849
Міхаі@@ 1845
крэ@@ 1844
прынцы@@ 1843
ер-@@ 1842
Казахстана 1842
выпад@@ 1842
Але@@ 1841
санк@@ 1840
m@@ 1840
справы 1838
максі@@ 1837
станоў@@ 1835
роб@@ 1834
вед@@ 1832
лет@@ 1831
асаблі@@ 1831
медыцын@@ 1828
змянен@@ 1828
джэння 1828
прынята 1827
хві@@ 1826
свае 1825
з-за 1823
торы@@ 1823
зараз 1823
мых 1822
аднаго 1821
пастано@@ 1820
адказнасці 1818
лены 1818
35 1815
цэн@@ 1814
ком 1814
бакі 1814
здар@@ 1814
ходы 1811
Бя@@ 1811
розных 1809
рэгістра@@ 1807
цыямі 1807
чнае 1804
Брэсц@@ 1804
зы 1802
дзеянняў 1801
ер 1801
збо@@ 1801
якога 1800
прац@@ 1799
асабліва 1798
зер@@ 1797
павелі@@ 1795
цтве 1794
набы@@ 1794
ева 1794
ўка@@ 1793
чаных 1786
ўпра@@ 1785
4-@@ 1785
здзелак 1785
роз@@ 1782
мага@@ 1781
плюс 1781
супрацоўніцтве 1781
атрымалі 1780
тэта 1780
Германі@@ 1779
ер-міністр 1778
льна 1778
жэнне 1775
вядо@@ 1774
він@@ 1773
двух 1772
стро@@ 1772
спажы@@ 1769
мел@@ 1769
рэй@@ 1768
вытворчасць 1768
прафе@@ 1766
льнасці 1764
піла 1763
цэнтра 1762
тэхналогі@@ 1761
ф 1760
дзё@@ 1760
над 1757
фед@@ 1756
шмат@@ 1756
80 1755
аддзел@@ 1755
ДАІ 1754
8-@@ 1753
сло@@ 1753
чыла 1753
прэс-службе 1751
іза@@ 1750
грамадскіх 1750
бюджэту 1750
беларуская 1749
гадовы 1749
чаргу 1749
пасяджэнне 1748
цэнтры 1747
тыўных 1746
ніка 1746
водзі@@ 1745
сустрэча 1745
выста@@ 1744
лін@@ 1744
мені@@ 1744
мэтай 1743
імя 1743
чаюць 1742
крыні@@ 1741
днё@@ 1740
адносіны 1740
усяго 1739
асабі@@ 1739
вобла@@ 1739
лам 1738
трлн 1737
знаходзі@@ 1737
аўтобус@@ 1736
цыйныя 1733
такія 1732
рэаль@@ 1732
магчымасці 1729
улікам 1728
прыма@@ 1727
in@@ 1726
аказан@@ 1726
спор@@ 1725
льна-@@ 1724
яўляюцца 1724
графі@@ 1723
тыкі 1723
снасці 1722
развіццё 1722
імі 1721
Дзяр@@ 1720
мам 1719
заплана@@ 1718
служ@@ 1717
валь@@ 1715
верас@@ 1715
харча@@ 1712
бліз@@ 1712
рамках 1708
няя 1708
чнымі 1707
с-@@ 1705
зацвер@@ 1705
выклі@@ 1703
склад 1703
дапамогі 1703
ГУУС 1703
прай@@ 1702
чоў 1701
праўлення 1701
Новости 1701
інтэрнэ@@ 1701
удзел@@ 1700
суча@@ 1699
знешне@@ 1699
жыха@@ 1699
людзі 1697
прадстаўнік 1697
ніка@@ 1697
шая 1696
страха@@ 1695
струк@@ 1695
6-@@ 1694
прагно@@ 1693
сваіх 1692
група 1690
волі 1689
Дзмітрый 1689
дэпута@@ 1688
народ@@ 1688
Міка@@ 1687
прастор@@ 1687
рус@@ 1686
ўлады 1685
калек@@ 1684
забеспя@@ 1684
сіць 1684
тэрыторы@@ 1682
тэхнікі 1680
Аў@@ 1679
сака@@ 1678
банкаў@@ 1678
маш@@ 1677
інтэгра@@ 1676
спе@@ 1676
ўве@@ 1674
млен@@ 1673
дагавор@@ 1673
кіра@@ 1671
7-@@ 1670
ёме 1669
ўсё@@ 1668
адным 1668
цытуе 1665
адной 1664
тыі 1664
збі@@ 1664
работнікаў 1663
стабі@@ 1663
найбліжэ@@ 1662
лак@@ 1662
даць 1661
даных 1660
следа@@ 1660
харак@@ 1659
маста@@ 1659
45 1658
ло 1658
g@@ 1657
разлі@@ 1657
садзейні@@ 1656
мярку@@ 1655
ўзроўню 1651
трымлі@@ 1651
трыман@@ 1648
фонду 1648
авія@@ 1647
S@@ 1646
ана@@ 1643
хам 1642
выканаў@@ 1641
РІА 1640
разві@@ 1640
тэры@@ 1640
Ле@@ 1640
амаль 1638
канферэн@@ 1637
выкана@@ 1637
усіх 1636
новыя 1636
лей@@ 1635
кова 1634
лукашэнка 1634
Бан@@ 1634
новага 1633
тка@@ 1632
Мак@@ 1631
чыцца 1628
выкон@@ 1628
звы@@ 1627
ліда@@ 1625
хаке@@ 1625
9-@@ 1624
цін 1622
ко 1621
першага 1621
экспарту 1620
чатыры 1620
правядзен@@ 1620
імпарт 1619
парта@@ 1619
абл@@ 1618
Ста@@ 1617
Маск@@ 1617
дзіця@@ 1617
ляць 1616
тура 1616
нават 1615
падраздзя@@ 1614
пу 1614
транспартных 1612
структуры 1612
тарам 1611
гры@@ 1611
ўпраўлення 1610
БАТЭ 1610
канфіска@@ 1610
прав@@ 1609
атры@@ 1609
Ко@@ 1609
справ@@ 1608
3.@@ 1608
зняво@@ 1608
шэрагу 1606
узроў@@ 1606
функ@@ 1606
стварэння 1605
беларускім 1605
1,5 1605
работы 1603
візіту 1603
падрыхтоўкі 1603
ганд@@ 1602
краса@@ 1601
выбараў 1600
яка@@ 1600
клад 1599
v@@ 1599
ноччу 1598
пады@@ 1598
Во@@ 1598
падзе@@ 1597
стварэн@@ 1597
плошчы 1596
цэлым 1595
тую 1594
адбылося 1594
ствара@@ 1593
адказ@@ 1592
гах 1592
абмяркоўва@@ 1592
членаў 1590
ходзяць 1590
меж@@ 1590
газу 1589
Уладзімі@@ 1588
пе 1587
распаўсюдж@@ 1587
сла 1586
прадугледжана 1586
суб 1586
спажыве@@ 1585
чаныя 1585
правод@@ 1584
поль@@ 1584
пытан@@ 1584
аналі@@ 1583
90 1582
пераш@@ 1580
хва@@ 1580
праходзіць 1577
ств@@ 1576
АДКБ 1575
Кар@@ 1575
эксплуата@@ 1575
лоў@@ 1573
чэннем 1570
Сла@@ 1570
ваючы 1569
снага 1567
яр@@ 1566
зай@@ 1566
склалі 1565
адзначаецца 1565
Ні@@ 1565
рах 1563
абарот 1560
ленняў 1560
выйгра@@ 1560
індывідуаль@@ 1560
газета 1560
ахоў@@ 1559
Пала@@ 1558
зе@@ 1558
тур 1558
млі@@ 1557
цел@@ 1556
абавяза@@ 1555
лісты 1555
жанчы@@ 1553
перамоў 1552
вышэй@@ 1551
10,@@ 1551
кваліфіка@@ 1550
парадак 1550
гл@@ 1550
дыпла@@ 1549
ствах 1547
папярэ@@ 1546
т-@@ 1545
усё 1545
адва@@ 1544
правядзенне 1543
грэ@@ 1542
ДТЗ 1542
чаецца 1541
знаходзяцца 1541
кодэк@@ 1540
цвёр@@ 1539
катэ@@ 1538
цам 1537
чалаве@@ 1537
каў@@ 1536
ліпен@@ 1536
яму 1535
зен@@ 1535
друго@@ 1535
нашай 1535
падставе 1533
ціць 1532
кантрак@@ 1530
гуля@@ 1530
выгля@@ 1530
будзем 1529
займа@@ 1529
гавор@@ 1528
кіраўніцтва 1527
размеш@@ 1527
пасл@@ 1526
снай 1525
тага 1525
пало@@ 1525
удзельніц 1523
станцыі 1521
жыць 1521
сельскай 1520
джэн@@ 1520
моман@@ 1520
ідзе 1520
яўля@@ 1519
сно@@ 1518
АТ 1518
інфармацый@@ 1517
велі@@ 1516
дагаво@@ 1514
мац@@ 1513
артыку@@ 1512
камітэт 1512
дыі 1512
бур@@ 1511
грамадскага 1511
развіцці 1511
заяві@@ 1511
рані@@ 1510
пагадненне 1510
чэрвен@@ 1508
прымянен@@ 1508
глед@@ 1507
стандар@@ 1506
стратэ@@ 1505
ёй 1504
перамовы 1503
вам 1503
агенцтва 1502
стаў@@ 1501
лай 1499
працоўкі 1499
прыцягну@@ 1498
ходзі@@ 1497
дзеяння 1497
АЭС 1496
Саюзнай 1496
сацыяльнай 1496
высту@@ 1495
.0@@ 1495
12,@@ 1495
32 1494
банкаў 1494
намер 1494
бел@@ 1494
бес@@ 1494
абсталявання 1493
мінулага 1492
лых 1491
сальда 1491
лод@@ 1490
ўзаемадзеяння 1490
рак 1489
спя@@ 1489
ай@@ 1488
рэспублі@@ 1488
ходзіць 1488
нацыянальнай 1488
краін@@ 1488
давай 1487
Еўрапей@@ 1486
краінамі 1486
тая 1485
мэтах 1485
апубліка@@ 1484
камітэ@@ 1483
дор@@ 1483
цтвам 1483
такое 1481
наведа@@ 1480
мужчы@@ 1479
змя@@ 1479
пастановай 1478
кастрычні@@ 1478
кон@@ 1477
d@@ 1476
жаны 1476
бо 1475
вулі@@ 1475
сумесных 1474
тыся@@ 1473
ходжання 1473
дазволіць 1471
хад@@ 1471
лян@@ 1471
май@@ 1471
віць 1471
прадуктаў 1471
праводзіцца 1470
ены 1469
інава@@ 1468
МА@@ 1467
льная 1466
крымінальнай 1464
навед@@ 1464
Мясніко@@ 1464
сакратар 1461
мех@@ 1459
навукова-@@ 1458
тарыя@@ 1456
асноўныя 1456
дырэктар 1456
чання 1455
ёнаў 1455
s 1455
h@@ 1455
суполь@@ 1455
рэгіяналь@@ 1455
валася 1454
стор@@ 1452
1,@@ 1451
стату@@ 1451
гаран@@ 1450
нагля@@ 1450
бель 1449
каш@@ 1447
судо@@ 1447
Шве@@ 1446
пак@@ 1446
суда 1445
рана 1445
УП 1444
ах 1443
Тур@@ 1442
май 1442
Еўро@@ 1440
тр 1440
знізі@@ 1438
плата 1437
войска@@ 1437
p@@ 1434
закры@@ 1432
кош@@ 1431
абарон@@ 1431
ўзроў@@ 1430
гам 1426
33 1424
Су@@ 1422
тр@@ 1419
заканадаў@@ 1418
вет 1417
пор@@ 1416
гас@@ 1415
лек@@ 1415
бай 1412
ства@@ 1410
вінава@@ 1410
завод 1408
34 1408
гаво@@ 1407
база@@ 1407
гер@@ 1405
срод@@ 1398
куро@@ 1396
тэх@@ 1391
лося 1389
ўзаема@@ 1383
чая 1383
мк@@ 1381
еў@@ 1380
нена 1380
надз@@ 1378
! 1378
Гру@@ 1377
рэд@@ 1370
ката@@ 1370
2015 1366
нутра@@ 1366
ахо@@ 1365
выдан@@ 1362
вытворча@@ 1361
C@@ 1361
фору@@ 1360
y@@ 1360
сульта@@ 1359
Но@@ 1352
напра@@ 1351
сво@@ 1348
продажу 1348
чні@@ 1347
11.@@ 1345
езд 1342
вор@@ 1342
13,@@ 1339
e 1337
о 1333
зве@@ 1330
дола@@ 1327
газ 1326
Грод@@ 1323
Лат@@ 1323
лёў 1321
твор@@ 1321
ню@@ 1320
от@@ 1312
нор@@ 1310
A@@ 1310
культур@@ 1309
вый@@ 1307
8.@@ 1303
чэмпіяна@@ 1302
12@@ 1302
сме@@ 1301
Гомель 1298
электрон@@ 1295
75 1294
чар@@ 1294
амер@@ 1293
500 1289
куль@@ 1289
38 1287
уж@@ 1287
В 1287
знача@@ 1285
сольства 1284
план@@ 1282
Рэ@@ 1279
55 1276
11,@@ 1276
сайт 1276
скры@@ 1276
2006 1268
мым 1268
паз@@ 1266
сакра@@ 1265
прой@@ 1265
ліць 1265
Кыргыз@@ 1263
14,@@ 1262
лікам 1261
ей@@ 1259
нан@@ 1258
43 1255
200 1254
грама@@ 1254
груп@@ 1254
свед@@ 1253
пагра@@ 1250
ска 1249
зня@@ 1248
лістапа@@ 1247
Анато@@ 1245
торых 1245
матч 1244
36 1243
39 1240
37 1236
ас@@ 1235
звяр@@ 1235
веча@@ 1235
падрых@@ 1234
чаты@@ 1231
аднос@@ 1228
км 1227
Пер@@ 1225
зах@@ 1224
цвер@@ 1224
Д 1223
дася@@ 1223
шай@@ 1222
B@@ 1222
рых@@ 1221
Пе@@ 1221
выканка@@ 1221
нер 1221
дапа@@ 1218
41 1218
патра@@ 1217
суд@@ 1212
лем 1212
1.0@@ 1210
міналь@@ 1210
42 1208
заема@@ 1206
журна@@ 1201
тру@@ 1200
вяз@@ 1199
T@@ 1197
фінан@@ 1194
пан@@ 1193
Бела@@ 1189
кіру@@ 1188
бер@@ 1188
Мета@@ 1185
бле@@ 1184
гон@@ 1183
46 1183
лах 1180
ена 1179
цах 1178
Ру@@ 1177
лур@@ 1175
ней 1170
арэн@@ 1169
.by 1165
мон@@ 1163
льную 1161
РУ@@ 1160
органы 1159
руп@@ 1157
шке@@ 1157
бера@@ 1154
ху@@ 1151
напо@@ 1151
201@@ 1151
прода@@ 1149
участ@@ 1146
Ля@@ 1143
15,@@ 1142
льго@@ 1142
рож@@ 1141
За 1141
Шах@@ 1139
48 1139
пло@@ 1139
работ@@ 1139
закон@@ 1138
4.@@ 1137
адз@@ 1134
дзела@@ 1133
Міністэр@@ 1133
шую 1132
мах 1131
транс@@ 1131
дол@@ 1129
фут@@ 1129
Нацбанка 1128
свой 1128
разо@@ 1126
заработ@@ 1125
раст@@ 1125
мэта@@ 1124
жніў@@ 1122
выпла@@ 1117
фра@@ 1115
пропус@@ 1114
M@@ 1108
ка-@@ 1108
сах 1107
2,5 1105
снеж@@ 1103
стру@@ 1101
мл@@ 1100
44 1100
Андрэ@@ 1099
www.@@ 1099
паведамлен@@ 1096
тын@@ 1095
ал@@ 1091
Т 1090
ной 1087
муналь@@ 1086
шых 1085
ера 1085
праця@@ 1085
След@@ 1084
49 1083
рай@@ 1083
балан@@ 1083
Со@@ 1082
памя@@ 1080
газе@@ 1080
16,@@ 1079
джана 1076
чах 1076
Неза@@ 1074
адука@@ 1074
фран@@ 1071
кв. 1069
паказ@@ 1068
Бал@@ 1067
сол 1067
27@@ 1067
доля 1064
шча 1062
МВФ 1062
- 1061
енса@@ 1060
мп@@ 1058
тная 1058
30@@ 1057
ман 1056
n 1056
трак@@ 1056
нейш@@ 1055
ўс@@ 1055
нец 1054
бой 1053
стэ@@ 1053
65 1052
кор@@ 1052
клу@@ 1051
дзель@@ 1050
партамента 1050
санд@@ 1050
эка@@ 1047
чэмпі@@ 1046
спец@@ 1044
лым 1043
сезо@@ 1041
васці 1041
47 1040
еры 1038
17,@@ 1037
арган@@ 1034
выказа@@ 1034
b@@ 1034
рАзЭС 1034
Дзмітры@@ 1033
Белорусси@@ 1032
тную 1032
несены 1030
прадпрыма@@ 1028
цяр@@ 1022
53 1022
Бар@@ 1021
52 1021
валюты 1020
er@@ 1018
198@@ 1015
ДС 1015
Ч 1013
штраф@@ 1012
межа@@ 1010
ходжан@@ 1006
28@@ 1005
E@@ 1005
29@@ 1004
меда@@ 1000
P@@ 999
муж@@ 996
формы 995
аўтама@@ 994
Мінск@@ 993
людз@@ 992
гну@@ 990
чле@@ 988
пы 986
вой@@ 985
стана@@ 977
ўсі@@ 977
X@@ 976
Сан@@ 974
укра@@ 974
Бара@@ 972
музы@@ 972
рэк@@ 969
57 967
51 966
Лю@@ 965
Ад@@ 965
абсталя@@ 964
адка@@ 962
месяц 961
сувяз@@ 961
актуаль@@ 960
сна@@ 960
56 959
смер@@ 959
мпература 958
БВФБ 958
магчыма@@ 957
Азербай@@ 956
парламента 954
плана 953
ляр@@ 953
k@@ 946
Газпро@@ 946
26@@ 946
ліка@@ 946
стрэ@@ 945
мера@@ 945
еўра@@ 945
мян@@ 943
сей 943
58 943
нет-@@ 943
план 942
19,@@ 939
сне@@ 938
шч@@ 935
спро@@ 934
бро@@ 934
новым 930
Вал@@ 930
лы@@ 930
ТА 930
прадугледжан@@ 929
ыя@@ 928
Казахстан 928
народа 925
шо@@ 925
Генера@@ 924
18,@@ 922
няш@@ 920
такой 920
ат@@ 919
груз@@ 914
ата@@ 914
эле@@ 911
клуба 911
54 910
афі@@ 909
ель 909
300 908
футбо@@ 908
Дзя@@ 907
ый 906
рот 905
прось@@ 905
ям 905
тан 904
Вен@@ 903
спо@@ 903
завер@@ 902
завод@@ 900
град@@ 900
na@@ 899
хак@@ 899
служб@@ 898
сус@@ 896
жо@@ 894
служа@@ 893
яў@@ 892
адказна@@ 891
базы 891
бал@@ 891
сту 889
or@@ 888
D@@ 888
СКА 887
3,5 887
лога 887
фля@@ 885
мне 884
М 883
жар@@ 883
руй@@ 881
фы 880
R@@ 879
БНФ 879
Сер@@ 878
чай@@ 878
лдо@@ 877
бар@@ 876
мен 874
руч@@ 873
такая 872
1,8 870
РУП 870
1,4 869
праду@@ 868
другой 866
59 866
к-@@ 865
туе 864
ніко@@ 863
л-@@ 863
нача@@ 863
сказа@@ 861
1,2 861
вышэ@@ 860
роны 860
an@@ 857
гея 857
1,7 857
68 853
сной 853
1,3 853
Белста@@ 852
кну@@ 849
1,6 848
61 848
дом 846
працо@@ 845
Рус@@ 842
стрычні@@ 840
F@@ 837
ам@@ 836
I 835
дал 833
адно@@ 831
ет@@ 830
кладна 829
сказала 829
ет 827
20,@@ 826
Бу@@ 823
40@@ 822
Гомел@@ 822
4,5 822
Міха@@ 821
9.@@ 818
0,5 817
члены 812
63 811
вел@@ 811
мент 811
арты@@ 810
62 810
кварта@@ 809
мку 808
5.@@ 808
які@@ 808
67 804
ферэн@@ 804
рг@@ 803
вертайме 803
эксперты 802
72 800
сферах 799
.000 799
Мы@@ 797
дума@@ 796
лег@@ 796
Санкт-Пе@@ 796
кг 796
7,5 794
6.@@ 793
7.@@ 791
бай@@ 791
2,1 789
76 789
несен@@ 788
f@@ 787
l 786
1,9 785
el@@ 781
табель@@ 781
стам 781
Нац@@ 781
под@@ 779
85 778
таль@@ 777
По@@ 777
лат@@ 776
N@@ 776
1,1 775
Венесуэ@@ 773
базе 773
навуко@@ 773
рак@@ 772
годы 770
стак 768
завода 767
нарко@@ 766
64 765
закона 765
2,2 761
нел@@ 761
зідэн@@ 758
інтэ@@ 758
&@@ 757
V@@ 757
квартале 756
мед@@ 756
Се@@ 755
вален@@ 754
2,4 754
a 753
Тад@@ 752
жур@@ 751
думаю 750
фонд 750
указ 749
дзецца 749
ваем 746
Ген@@ 745
2,3 745
развіцц@@ 745
штаб@@ 743
тэхнало@@ 743
Казах@@ 742
паслу@@ 740
бод@@ 739
емся 739
метра@@ 738
Урал@@ 738
39@@ 737
цар@@ 737
Бо@@ 737
хол@@ 735
ега@@ 733
конкурс 733
ar@@ 730
сай@@ 729
Кубка 728
вое 726
Павел 726
бр@@ 723
бло@@ 723
тро 723
цягну@@ 720
Дз@@ 720
II 720
пед@@ 718
G@@ 717
яна@@ 717
насельні@@ 712
L@@ 706
насел@@ 701
лега@@ 700
зло@@ 700
ству 695
форм 694
студзен@@ 692
йцар@@ 692
сфер@@ 692
бен@@ 690
леда@@ 689
стэр@@ 685
пр@@ 684
Г 683
и 682
бус@@ 681
Белорус@@ 681
шчы 678
ой 678
Ф 677
Л 675
СС@@ 673
Між@@ 673
t 670
Ло@@ 667
жні@@ 667
І 662
тый 662
зд@@ 659
назі@@ 657
d 655
устана@@ 655
тсмен@@ 654
абмяр@@ 651
сум@@ 651
лог 650
затра@@ 647
ха 645
перспек@@ 645
H@@ 644
рав@@ 640
кад@@ 637
структур@@ 635
акты@@ 634
павод@@ 634
выс@@ 634
дзем 631
казан@@ 630
Бер@@ 628
суб@@ 628
каж@@ 626
ара 623
бла@@ 616
прош@@ 616
Рад@@ 614
тнасці 610
g 610
павін@@ 609
Ана@@ 608
зем@@ 607
То@@ 606
дада@@ 605
заме@@ 603
До@@ 593
выкары@@ 593
памі@@ 587
назы@@ 586
вости 584
ские 581
ходзя@@ 579
енных 575
рам@@ 574
лежа@@ 574
прапан@@ 572
сел@@ 570
ом 570
вяза@@ 568
Магі@@ 564
купа@@ 564
штра@@ 562
меш@@ 561
зла@@ 558
выез@@ 557
АТ@@ 556
O@@ 552
y 551
двух@@ 551
лоб@@ 551
ом@@ 548
яко@@ 548
мініст@@ 543
ора 543
m 542
некаль@@ 541
згод@@ 540
цыяналь@@ 540
пэ@@ 537
r 537
фер@@ 534
гран@@ 533
Не@@ 530
Ер@@ 529
воль@@ 528
туаль@@ 526
Укра@@ 525
W@@ 524
элек@@ 519
запла@@ 518
Мінгар@@ 516
мясц@@ 515
лен 513
чыненні 512
вязан@@ 512
Ро@@ 511
попы@@ 510
чэр@@ 507
станові@@ 506
міра@@ 502
Ды@@ 500
Ц 499
неза@@ 496
аген@@ 496
само@@ 495
меды@@ 494
ван 494
выкан@@ 491
w@@ 491
Ё@@ 488
ут@@ 486
ской 483
фек@@ 483
… 480
мет@@ 479
юз@@ 475
дак 474
СЕ 473
ром 470
нова@@ 469
дзвю@@ 468
z@@ 466
он 465
О 465
неш@@ 463
шэра@@ 462
Уладзі@@ 459
ноч@@ 459
Куб@@ 456
ро 452
нанні 450
лага@@ 449
распаўс@@ 448
пят@@ 447
параў@@ 446
юры@@ 445
сам@@ 445
Мо@@ 442
піта@@ 440
месяца 440
ладзі@@ 437
юза 433
праз@@ 430
сур@@ 427
наза@@ 425
слі@@ 422
Ком@@ 420
прадуглед@@ 418
скон@@ 417
Ме@@ 416
U@@ 415
A 410
Го@@ 409
мой 407
Гер@@ 406
рова@@ 404
прамы@@ 404
цес@@ 403
зво@@ 403
клуб@@ 400
ен 400
вод 399
Анд@@ 397
ламен@@ 391
ння 390
Э 389
C 389
соль@@ 384
шэнка 384
інды@@ 383
станов@@ 383
пер 380
ступа@@ 380
канды@@ 379
орган@@ 379
наб@@ 376
сем@@ 374
лета 373
пасяджэн@@ 372
Ж 371
род 369
p 361
ны@@ 360
ЗС 359
k 356
.b@@ 355
эта 354
вень 353
бое@@ 352
стран@@ 352
гістра@@ 351
АН 350
д. 349
дзел 349
выба@@ 348
макра@@ 347
оста@@ 341
больш@@ 340
-за 339
i 337
пол@@ 336
дук@@ 335
каса@@ 332
падар@@ 329
– 328
тора@@ 324
став@@ 324
дву@@ 323
цен@@ 323
бліжэ@@ 321
ТС 321
колька@@ 319
нед@@ 318
o 318
МВ@@ 314
аўто@@ 314
V 313
прын@@ 313
ама@@ 313
СН@@ 313
мяр@@ 312
работа 312
ком@@ 310
указан@@ 309
неаб@@ 308
апра@@ 307
нём 307
она 304
экана@@ 304
грам@@ 300
здароў@@ 300
руж@@ 300
гаворы@@ 299
Я 299
работу 296
лет 296
форма@@ 296
нагада@@ 295
Н 295
паведамі@@ 295
ток 295
уч@@ 294
S 294
рэгі@@ 289
ге 289
розы@@ 289
лон@@ 284
папя@@ 278
есуэ@@ 278
еж@@ 276
ЭС 276
мля@@ 275
Дзяржа@@ 274
сама 270
году 270
ставе 270
лага 269
X 268
убліка@@ 265
стано@@ 264
тон@@ 263
СМ@@ 263
#@@ 263
удо@@ 262
сей@@ 262
ема@@ 262
жд@@ 261
кол@@ 261
КБ 258
зне@@ 257
парт@@ 255
D 254
кура@@ 254
мента 252
пей@@ 251
K@@ 251
• 247
Й@@ 245
фу@@ 244
нама 243
Лука@@ 242
G 242
без@@ 241
лед@@ 240
мень@@ 237
h 237
намер@@ 236
цеб@@ 233
эфек@@ 229
сед@@ 228
паку@@ 226
ГУ@@ 225
СК@@ 224
мпера@@ 224
рой 222
АТЭ 220
спуб@@ 220
Х 219
зербай@@ 217
F 217
смен@@ 215
пацяр@@ 213
ав@@ 213
ев@@ 211
кл@@ 209
туа@@ 209
пася@@ 208
сніко@@ 208
раза 207
уча@@ 206
РІ@@ 206
po@@ 205
выро@@ 205
раздзя@@ 204
каго@@ 204
нк@@ 203
x@@ 203
кой 201
плю@@ 201
йств@@ 200
абмярко@@ 199
член@@ 198
БН@@ 195
J@@ 193
медыцы@@ 192
лож@@ 190
бель@@ 190
вадзі@@ 189
гоў 189
тоўкі 189
док 188
бед@@ 188
торы 188
лья 187
лом 186
нен 184
імп@@ 183
заг@@ 182
Z@@ 182
нэ@@ 181
емых 177
нет 176
знаходзя@@ 175
&a@@ 174
Е 173
соб@@ 172
эксп@@ 172
пел@@ 171
ему 169
строй@@ 168
даль@@ 168
выраз@@ 167
віка 167
ок 166
вал 165
работа@@ 163
супрац@@ 163
c 162
дзелак 162
нок 162
цвё@@ 161
P 159
абста@@ 159
u 159
оп@@ 154
Кон@@ 154
Алек@@ 151
R 151
цер@@ 149
аві@@ 149
ное 147
сня@@ 147
трым@@ 146
ГА@@ 145
ргей 144
M 143
прыем@@ 143
юр@@ 143
мак@@ 142
сро@@ 141
электро@@ 140
нару@@ 139
сф@@ 139
И@@ 139
H 137
N 137
B 136
Гом@@ 135
ок@@ 135
ч. 135
@ 133
O 130
тарэ@@ 130
канц@@ 130
мітры@@ 129
забе@@ 129
Міні@@ 129
паві@@ 126
прост@@ 125
АІ 125
норма@@ 124
газа 123
нало@@ 118
Про@@ 116
Ура@@ 115
мест@@ 115
T 115
мес@@ 112
f 111
АО 111
ДТ@@ 110
квар@@ 109
н. 109
E 108
вок 107
Ъ 107
x 105
саль@@ 105
здра@@ 105
ке 105
эксплу@@ 104
зарэ@@ 102
сю 101
Саюз@@ 101
канфі@@ 101
наход@@ 100
цей 100
право@@ 99
j@@ 97
Ь 97
сор@@ 97
гно@@ 96
аляк@@ 96
ая 94
арус@@ 94
марш@@ 94
до 93
тэрыя@@ 92
Гро@@ 92
пута@@ 91
ліфіка@@ 90
Y@@ 90
ША 89
L 89
расс@@ 89
ут 89
това@@ 88
іні@@ 88
с. 87
еме 86
Ў 86
по 86
W 85
поста@@ 84
шко 84
мо 82
зпро@@ 82
люд@@ 82
Ш 81
кв@@ 81
падкрэ@@ 80
боле@@ 76
Аз@@ 76
www@@ 76
ном 75
словам 75
ох@@ 74
’ 74
экано@@ 74
ыргыз@@ 73
неф@@ 73
тор 72
мя 71
льта@@ 70
ия 70
закана@@ 70
паўс@@ 69
Поль@@ 68
z 68
ліцы 67
ство 67
ерах 66
месні@@ 64
вест@@ 63
чной 62
толь@@ 61
точ@@ 60
днем 59
w 59
бюдж@@ 58
насель@@ 58
b 58
Q@@ 57
K 56
вета 54
ья 54
сандра 54
ре@@ 54
акра@@ 54
тной 53
кр@@ 53
ят 53
пора@@ 52
яв@@ 52
лука@@ 51
яналь@@ 51
_ 51
обра@@ 50
J 50
еб@@ 49
сти@@ 48
поя@@ 46
ский 45
со 45
ъ 45
жо 45
$ 45
дзельні@@ 43
те 43
ыз@@ 43
Y 43
U 42
паведа@@ 41
назна@@ 40
,@@ 40
РИА 40
мости 39
ское 39
ин@@ 37
сбо@@ 37
Садруж@@ 36
баты@@ 36
вос@@ 36
Ы@@ 36
вел 36
ст. 35
эф@@ 33
яшч@@ 32
хот@@ 32
це-@@ 32
v 31
тайме 30
с-служб@@ 30
поез@@ 30
де 30
тора 30
мпі@@ 29
Z 28
страда@@ 27
страхо@@ 27
вель@@ 27
q@@ 26
смо@@ 26
дзяр@@ 26
Сад@@ 26
круп@@ 25
оч@@ 24
” 24
том 24
КГ@@ 23
“ 23
УК 23
ФБ 22
и@@ 22
сти 22
БВ@@ 22
Ю 22
Моск@@ 22
но-@@ 22
ют 22
адбу@@ 21
сле 21
ми@@ 21
БСЕ 21
ПАН 20
тер@@ 20
ского 19
выбор@@ 19
началь@@ 19
мыш@@ 19
чер@@ 18
спублі@@ 18
тно 18
ством 18
стоя@@ 18
во 18
ки 18
чала@@ 18
Россия 17
Ин@@ 17
ове@@ 17
щ 17
Украи@@ 17
орг@@ 16
ник 16
обе@@ 16
кумен@@ 16
ДКБ 16
Ре@@ 16
жда@@ 16
ров@@ 16
ске 16
º@@ 16
ью 16
ском 15
сегодня 15
ни@@ 15
скому 15
ским 15
рублей 15
Ў@@ 15
это@@ 15
працоўні@@ 15
нау@@ 14
от 14
сом 14
выяв@@ 14
ли@@ 14
вари@@ 14
торая 14
рАз@@ 13
зульта@@ 13
# 13
індыві@@ 13
коно@@ 13
воен@@ 13
= 13
ний 12
об 12
прак@@ 12
дуаль@@ 12
де@@ 12
pos@@ 12
Росси@@ 11
руко@@ 11
выход@@ 11
ности 11
вый 11
мянен@@ 11
* 11
че@@ 11
млр@@ 11
льной 10
статы@@ 10
трл@@ 10
белорус@@ 10
ност@@ 10
― 10
ря@@ 10
ные 10
ели 10
юдж@@ 10
ному 10
прес@@ 9
вю@@ 9
ссо@@ 9
Беларуси 9
Брест@@ 9
лся 9
установ@@ 9
нее 9
СНГ 9
ный 9
вом 9
Ь@@ 9
j 9
ских 9
же@@ 9
ВД 9
ден@@ 9
пре@@ 9
мом 8
те@@ 8
из@@ 8
вский 8
луч@@ 8
нев@@ 8
что 8
ти@@ 8
é@@ 8
с-служба 8
щи@@ 8
поч@@ 8
Ы 8
США 7
же 7
вре@@ 7
® 7
ДТП 7
Белорусской 7
ви@@ 7
И 7
ляк@@ 6
ори@@ 6
алек@@ 6
комп@@ 6
ни 6
теле@@ 6
сельхо@@ 6
мн@@ 6
тя@@ 6
хозя@@ 6
ри@@ 6
ков@@ 6
ть 6
тому 6
Мин@@ 6
супра@@ 6
ть@@ 6
ки@@ 6
сред@@ 6
\ 5
торо@@ 5
Санкт-@@ 5
зр@@ 5
бя 5
МВД 5
Цен@@ 5
тел@@ 5
ция 5
ения 5
щ@@ 5
зом 5
ными 5
дел@@ 5
связ@@ 5
Й 5
наказ@@ 5
РИ@@ 5
России 5
Ми@@ 4
вые 4
извест@@ 4
ски 4
сточ@@ 4
Ав@@ 4
ито@@ 4
Союз@@ 4
полу@@ 4
ди@@ 4
чи@@ 4
ров 4
Санк@@ 4
ми 4
белорусские 4
повы@@ 4
ного 4
засед@@ 4
ше@@ 4
твер@@ 4
ение 4
вого 4
тив@@ 4
убеж@@ 4
виси@@ 4
пере@@ 4
ОДКБ 4
гей 4
ги@@ 4
глава 4
спрос 3
группа 3
Ев@@ 3
кий 3
тонн 3
ев 3
ческого 3
государ@@ 3
ги 3
разв@@ 3
мые 3
ее 3
тен@@ 3
сте@@ 3
взя@@ 3
ше 3
как 3
пробле@@ 3
есу@@ 3
é 3
дель@@ 3
уче@@ 3
дек@@ 3
стр@@ 3
віцэ@@ 3
Витеб@@ 3
был 3
сох@@ 3
шен@@ 3
ò@@ 3
ре 3
ые 3
Q 3
отра@@ 3
кого@@ 3
мир@@ 3
при@@ 3
ница 3
зи@@ 3
Че@@ 3
рей@@ 3
ии 2
жен@@ 2
пред@@ 2
участников 2
сколь@@ 2
лось 2
день 2
скве 2
авто@@ 2
ино@@ 2
ред@@ 2
будут 2
информацион@@ 2
агент@@ 2
сказал 2
ли 2
стер@@ 2
банков@@ 2
статисти@@ 2
Республи@@ 2
ческие 2
демокра@@ 2
ств 2
свобод@@ 2
время 2
ность 2
гда 2
транспор@@ 2
меро@@ 2
™ 2
q 2
ника 2
сайте 2
долла@@ 2
уже 2
ъ@@ 2
Евро@@ 2
лов@@ 2
охран@@ 2
Гроднен@@ 2
евро 2
поли@@ 2
​ 2
í@@ 2
ани@@ 2
могу@@ 2
только 2
главы 2
цены 2
целях 2
это 2
ит@@ 2
говор@@ 2
ствен@@ 2
ов 2
еди@@ 2
еся 2
тов 2
благо@@ 2
соз@@ 2
веро@@ 2
сли 2
Вла@@ 2
ческой 2
є@@ 2
мышлен@@ 2
ении 2
тин@@ 2
∙ 2
Минск@@ 2
ним@@ 1
Минск 1
полити@@ 1
 1
посе@@ 1
ерации 1
хокке@@ 1
~ 1
ww@@ 1
труда 1
государств 1
пи@@ 1
оди@@ 1
á@@ 1
принима@@ 1
желез@@ 1
доро@@ 1
спорта 1
ферен@@ 1
обо@@ 1
коман@@ 1
тами 1
вш@@ 1
предложение 1
вз@@ 1
дел 1
жение 1
ще@@ 1
где 1
игра@@ 1
националь@@ 1
совер@@ 1
белорусских 1
исследо@@ 1
ваний 1
фонда 1
Бре@@ 1
дело 1
чные 1
ступл@@ 1
четы@@ 1
Щ@@ 1
ками 1
ческих 1
ков 1
себя 1
будем 1
пока 1
мь@@ 1
тября 1
марта 1
докумен@@ 1
à 1
трен@@ 1
три@@ 1
начало 1
гос@@ 1
жи 1
зов 1
лик@@ 1
Нико@@ 1
нов 1
специаль@@ 1
ООН 1
граждан@@ 1
молод@@ 1
люди 1
были 1
наде@@ 1
` 1
че 1
Ви@@ 1
замест@@ 1
вает 1
лит@@ 1
ОО@@ 1
республи@@ 1
провод@@ 1
нефти 1
ит 1
выбо@@ 1
украин@@ 1
журнали@@ 1
что@@ 1
виде@@ 1
есть 1
цен 1
ить 1
дов 1
око@@ 1
вила 1
би@@ 1
ины 1
сбор@@ 1
фи@@ 1
политики 1
мит@@ 1
ресур@@ 1
 1
вырос 1
â@@ 1
ния 1
всех 1
Õ@@ 1
переда@@ 1
програм@@ 1
с-службы 1
перед 1
лия 1
во-@@ 1
льного 1
района 1
Минска 1
акции 1
кто 1
лови@@ 1
Лит@@ 1
союза 1
лин@@ 1
молодеж@@ 1
все@@ 1
страны 1
тся 1
ис@@ 1
под 1
Украины 1
сть 1
жел@@ 1
вать 1
чел@@ 1
ники 1
расче@@ 1
простран@@ 1
Ö@@ 1
обращ@@ 1
жи@@ 1
дела@@ 1
вич 1
è@@ 1
Ки@@ 1
дела 1
ē@@ 1
иннова@@ 1
ции 1
кре@@ 1
сфере 1
Александра 1
чей 1
тные 1
ческим 1
делега@@ 1
дер@@ 1
льный 1
организо@@ 1
ватель@@ 1
ряд 1
лов 1
сове@@ 1
щение 1
из 1
Ди@@ 1
пря@@ 1
договор@@ 1
зиден@@ 1
опера@@ 1
ходе 1
ями 1
ā@@ 1
ити@@ 1
ания 1
будет 1
бизне@@ 1
преду@@ 1
тябр@@ 1
свою 1
˚ 1
вла@@ 1
ü@@ 1
независи@@ 1
обла@@ 1
ОАО 1
судар@@ 1
его 1
управл@@ 1
