, 587831
. 383048
в 345385
и 238142
на 176427
— 162510
с 103296
по 95464
( 92930
) 92540
по@@ 70966
о@@ 61368
а 58167
не 57215
ной 55780
у@@ 53737
% 53606
и@@ 51892
ного 51481
в@@ 51194
что 50005
е 49767
к 48313
т 47269
ных 46701
о 46513
с@@ 45557
но 45111
Беларуси 43994
про@@ 43353
года 40244
не@@ 39798
при@@ 39702
ли@@ 38044
1 36836
за 36573
ть 36168
на@@ 36103
ения 35831
ные 35820
ный 35744
ли 35632
во@@ 35327
м 35261
ре@@ 35201
ти@@ 35176
за@@ 34799
л 34633
д@@ 34073
я 33924
у 33261
ко@@ 32717
ни@@ 32413
ви@@ 32353
: 32309
н 32046
я@@ 31990
т@@ 31589
до@@ 30507
е@@ 30334
со@@ 29962
ки 29862
как 29699
но@@ 29611
млн. 29066
ро@@ 28529
ка 28414
-@@ 28177
ции 28032
для 27818
ет 27389
то@@ 27268
ва@@ 26652
от@@ 26469
ла 25926
ш@@ 25325
ин@@ 25277
ра@@ 24702
ж@@ 24661
тыс. 24483
2 24252
из 23924
ми 23644
м@@ 23639
ном 23355
си@@ 23259
л@@ 23255
вы@@ 22948
з@@ 22852
ского 22793
ка@@ 22680
также 22487
ить 22394
ное 22357
ской 22337
том 22334
ты 22295
С@@ 22229
3 22071
та 22034
а@@ 21988
к@@ 21902
ен@@ 21708
до 21652
че@@ 21583
ле@@ 21558
мо@@ 21520
чи@@ 21394
его 21357
об@@ 21007
ным 20994
ч@@ 20952
раз@@ 20787
от 20753
ь@@ 20528
ми@@ 20464
рублей 20349
ы 20323
мы 20184
р@@ 20106
6 19931
й@@ 19916
й 19912
ение 19703
ем 19450
4 19391
ло@@ 19363
ная 19355
ке 19223
ь 18944
тов 18927
ей 18663
те 18515
го@@ 18461
те@@ 18321
та@@ 18035
жи@@ 17981
он 17949
2@@ 17811
р 17570
ется 17539
ю 17403
ди@@ 17116
7 17111
ений 17025
се@@ 17002
ция 16941
О@@ 16910
А@@ 16904
; 16725
ве@@ 16571
кон@@ 16517
ль@@ 16469
3@@ 16383
ва 16304
ства 16254
это 16231
ри@@ 16165
5 16151
да@@ 16126
ении 15968
х@@ 15880
ф@@ 15806
8 15787
В@@ 15782
9 15776
их 15732
Б@@ 15730
ют 15698
г@@ 15646
вой 15581
ст@@ 15562
будет 15545
де@@ 15305
из@@ 15239
б@@ 15188
П@@ 15151
бо@@ 15093
ма@@ 15081
ку 14934
ме@@ 14891
И@@ 14607
пре@@ 14540
сто@@ 14535
пере@@ 14532
п@@ 14430
са 14414
Лукашенко 14400
н@@ 14341
ло 14312
4@@ 14264
под@@ 14216
году 14195
ста@@ 14156
Д@@ 14118
ия 14089
при 13892
ков 13718
ство 13682
но-@@ 13675
этом 13637
8@@ 13581
ор@@ 13536
9@@ 13421
ма 13391
пер@@ 13336
К@@ 13304
7@@ 13303
ными 13269
воз@@ 12953
вер@@ 12945
Беларусь 12932
.@@ 12783
щ@@ 12771
зо@@ 12663
Г@@ 12642
млрд. 12497
да 12492
ие 12452
долларов 12411
вых 12340
га@@ 12326
вод@@ 12314
су@@ 12312
ности 12202
ан@@ 12186
или 12179
ский 12176
ер@@ 12134
му 12105
5@@ 12055
ению 11979
цию 11946
лись 11927
пи@@ 11903
М@@ 11868
мен@@ 11834
ар@@ 11813
лся 11759
ки@@ 11744
х 11699
жа@@ 11686
пред@@ 11592
об 11571
ская 11513
ше@@ 11484
са@@ 11456
6@@ 11414
время 11409
пресс-служба 11391
зи@@ 11322
па@@ 11305
ную 11237
ц@@ 11207
од@@ 11188
го 11150
г 11089
ю@@ 11089
во 10978
составил 10708
сообщает 10665
ши@@ 10652
ских 10599
рас@@ 10573
ту 10486
0 10438
вания 10416
итель@@ 10344
ии 10308
вать 10266
ля@@ 10260
России 10238
ском 10227
ания 10188
лось 10174
которые 10139
вед@@ 9966
д 9954
ча@@ 9901
Т@@ 9890
год@@ 9886
ла@@ 9871
бы@@ 9865
заявил 9860
ность 9834
ров 9805
ко 9557
Н@@ 9510
сти@@ 9492
10 9480
сказал 9468
Минске 9437
ско@@ 9359
ле 9325
э@@ 9311
ит@@ 9285
ру@@ 9203
более 9203
ги@@ 9202
же 9193
области 9092
ти 9088
участ@@ 9047
ением 9018
то 8988
ел@@ 8963
ход@@ 8939
было 8907
сред@@ 8901
ван@@ 8865
вого 8855
ед@@ 8847
тель@@ 8840
того 8781
тор@@ 8770
ствен@@ 8667
ис@@ 8661
них 8601
ее 8572
ы@@ 8567
дан@@ 8478
1@@ 8469
Бел@@ 8440
Х@@ 8430
ша@@ 8378
ба@@ 8368
будут 8340
со 8239
пол@@ 8141
ться 8135
ци@@ 8100
сов 8081
им 8073
фи@@ 8063
лась 8049
словам 8037
лен@@ 8030
ческих 8029
хо@@ 8016
все 8003
20 7992
был 7951
рован@@ 7915
ям 7888
ях 7866
президента 7860
ани@@ 7838
бу@@ 7815
отметил 7796
ак@@ 7758
стра@@ 7748
ному 7699
ями 7676
пу@@ 7671
полити@@ 7646
гра@@ 7627
были 7616
ий 7594
Мин@@ 7583
государства 7558
0,@@ 7553
состоя@@ 7544
зна@@ 7510
США 7492
тив@@ 7448
ве 7417
гла@@ 7405
ком@@ 7386
ов 7368
№ 7363
ль 7360
стро@@ 7337
тра@@ 7321
пор@@ 7310
ком 7302
У@@ 7267
стве 7230
ом 7209
га 7202
щи@@ 7189
30 7184
ций 7178
ские 7176
там 7175
чен@@ 7175
ку@@ 7143
му@@ 7136
дел@@ 7108
страны 7104
Е@@ 7070
числе 7062
вы 7060
ании 7053
ден@@ 7045
кой 7039
цы 7014
сть 7005
право@@ 6915
БелаПАН 6911
15 6907
тер@@ 6889
после 6883
ус@@ 6882
ются 6873
так 6866
бе@@ 6866
него 6833
ание 6814
Ф@@ 6783
мест@@ 6775
ителей 6774
стран 6770
ги 6746
соб@@ 6734
ну@@ 6721
2011 6707
основ@@ 6699
2010 6686
сер@@ 6680
пе@@ 6677
ны 6625
объем 6620
нед@@ 6593
рабо@@ 6565
ств 6558
тел@@ 6550
тем 6538
Л@@ 6533
аль@@ 6525
ится 6520
2012 6520
ческой 6464
би@@ 6462
руковод@@ 6459
Ко@@ 6438
белорус@@ 6428
Р@@ 6395
января 6359
ель@@ 6352
чем 6344
который 6337
енных 6337
бы 6326
О 6323
ща@@ 6310
мая 6297
ек@@ 6290
ским 6258
представ@@ 6240
ды 6226
чтобы 6225
ческого 6225
Александр 6218
тных 6215
ходе 6203
ем@@ 6198
цен@@ 6157
ств@@ 6147
це@@ 6142
12 6138
кор@@ 6104
вые 6095
декабря 6081
производ@@ 6062
Э@@ 6061
ни 6035
ления 6001
ены 5998
они 5969
вает 5968
5,@@ 5966
ней 5952
приня@@ 5948
он@@ 5933
докумен@@ 5924
ран@@ 5918
ня@@ 5904
дел 5900
з 5899
10@@ 5895
11 5888
информации 5888
став@@ 5886
род@@ 5885
уже 5884
уч@@ 5878
сь 5877
международ@@ 5872
З@@ 5862
сни@@ 5844
вание 5833
наш@@ 5828
сро@@ 5813
послед@@ 5812
только 5805
человек 5792
связи 5790
ством 5787
Ш@@ 5787
жен@@ 5785
2013 5779
цион@@ 5763
нов 5748
заяв@@ 5746
развития 5746
сообщил 5742
же@@ 5728
3,@@ 5710
установ@@ 5691
сво@@ 5688
2009 5688
вич 5679
ры@@ 5674
чи 5668
0@@ 5664
ющ@@ 5658
ев 5641
Ч@@ 5638
ту@@ 5637
ду@@ 5634
сти 5625
июля 5618
ени@@ 5616
сообщили 5612
этого 5610
тро@@ 5601
нов@@ 5591
тен@@ 5581
СНГ 5580
жд@@ 5576
нам 5560
продукции 5546
Евро@@ 5539
коман@@ 5529
ью 5498
белорусского 5496
лю@@ 5493
ник 5482
ст 5481
оста@@ 5477
тре@@ 5472
лет 5453
ром 5452
между 5444
рова@@ 5430
ев@@ 5426
име@@ 5426
октября 5425
ление 5408
организации 5408
6,@@ 5405
шения 5392
провод@@ 5390
пар@@ 5389
ез@@ 5377
долж@@ 5366
Ка@@ 5354
25 5342
4,@@ 5340
ме 5338
ся 5334
сообщила 5324
емо@@ 5316
14 5314
нах 5295
Ю@@ 5287
курс 5281
она 5279
+ 5273
лич@@ 5259
сотрудничества 5257
рования 5246
обеспе@@ 5245
спор@@ 5243
шен@@ 5234
которых 5231
ское 5210
С 5207
сентября 5201
16 5200
под 5191
19 5187
ад@@ 5177
50 5174
июня 5172
ству 5150
рамках 5149
числ@@ 5142
ников 5137
13 5135
8,@@ 5129
марта 5129
боль@@ 5126
глав@@ 5121
осно@@ 5117
подчеркнул 5100
решение 5096
кроме 5084
ца 5078
гро@@ 5076
прав@@ 5074
знач@@ 5069
определ@@ 5068
точ@@ 5067
ноября 5067
официаль@@ 5065
ющих 5063
ра 5057
говор@@ 5051
безопасности 5042
обра@@ 5039
больше 5034
апреля 5033
националь@@ 5025
пла@@ 5017
если 5016
ав@@ 5016
год 5015
августа 4998
быть 4989
вил 4989
чных 4983
нии 4981
17 4970
деятельности 4963
ке@@ 4956
сегодня 4954
ждения 4945
цией 4937
работы 4917
e@@ 4906
18 4904
может 4902
тя@@ 4884
стороны 4872
Во@@ 4870
сси@@ 4862
всех 4859
o@@ 4854
дер@@ 4853
гор@@ 4849
Со@@ 4849
комитета 4832
около 4828
белорусских 4816
2008 4815
повы@@ 4814
t@@ 4807
президен@@ 4806
б 4795
ит 4776
бан@@ 4762
шение 4756
дов 4753
еще 4743
след@@ 4739
ска@@ 4726
техни@@ 4722
откры@@ 4721
9,@@ 4717
рубля 4714
времен@@ 4701
сп@@ 4686
средств 4682
глава 4674
автомоби@@ 4671
использо@@ 4660
/ 4654
Совета 4652
де 4652
зы@@ 4647
торго@@ 4644
ние 4640
союза 4639
ил 4636
кра@@ 4636
i@@ 4617
П 4615
форми@@ 4615
является 4614
стан@@ 4609
скую 4606
кру@@ 4602
заклю@@ 4598
без 4595
общ@@ 4581
россий@@ 4581
полу@@ 4581
ственного 4575
Мо@@ 4566
К 4562
зации 4556
сло@@ 4543
Минск 4543
7,@@ 4533
президент 4529
ОАО 4526
январе 4525
теле@@ 4522
мер@@ 4520
пробле@@ 4519
ено 4518
лено 4505
сравнению 4502
государствен@@ 4489
направл@@ 4486
стов 4482
организаций 4473
19@@ 4470
служ@@ 4467
провед@@ 4463
уб@@ 4451
еж@@ 4449
ины 4440
ъ@@ 4435
ранее 4432
тур@@ 4429
ят 4426
ц 4418
кла@@ 4416
нем 4413
реализации 4412
нача@@ 4411
доб@@ 4402
направ@@ 4400
отношении 4399
полож@@ 4394
вается 4380
сы 4379
февраля 4374
говорится 4370
граждан 4370
лы 4369
правительства 4348
хозяй@@ 4348
ках 4340
грани@@ 4335
информа@@ 4330
ще@@ 4327
евро 4320
24 4303
мин@@ 4303
обще@@ 4299
ровать 4296
белорусской 4294
производства 4290
управления 4285
государств 4279
обсу@@ 4277
вопросы 4270
зар@@ 4259
объ@@ 4246
вым 4243
была 4241
предложение 4229
совмест@@ 4222
ники 4222
ую 4212
ий@@ 4211
результа@@ 4208
участие 4192
це 4183
ге 4172
Ки@@ 4161
необходи@@ 4159
вая 4152
работа@@ 4151
территории 4143
сла@@ 4138
23 4134
пл@@ 4132
.00 4131
сы@@ 4127
зу@@ 4126
фак@@ 4119
высо@@ 4114
мат@@ 4112
22 4112
экономики 4109
чения 4106
ками 4104
руб@@ 4099
ля 4098
Минска 4095
воен@@ 4091
этот 4090
еди@@ 4087
оруж@@ 4087
21 4084
оп@@ 4081
смо@@ 4081
Го@@ 4075
Ж@@ 4060
правитель@@ 4053
само@@ 4049
итогам 4045
ман@@ 4042
иться 4038
важ@@ 4034
тся 4028
28 4027
место 4027
програм@@ 4026
журнали@@ 4024
бр@@ 4013
уголов@@ 4007
Белорус@@ 4005
Республики 4003
транспор@@ 3997
действ@@ 3988
На@@ 3987
00 3973
27 3967
скому 3965
кар@@ 3963
цел@@ 3957
город@@ 3952
нас 3947
ителя 3943
комплек@@ 3934
вш@@ 3930
1.@@ 3925
постав@@ 3924
тия 3917
26 3917
финансо@@ 3917
ующ@@ 3917
тами 3911
данным 3893
иностранных 3892
лении 3892
льного 3888
вет@@ 3881
договор@@ 3874
ен 3866
ния 3865
гу@@ 3855
a@@ 3852
товаров 3849
жение 3845
мину@@ 3843
авто@@ 3837
опера@@ 3835
этой 3835
ию 3831
сель@@ 3825
льных 3818
лов 3814
сум@@ 3808
спрос 3804
эк@@ 3798
лет@@ 3791
измен@@ 3788
все@@ 3785
всего 3777
кам 3775
пен@@ 3773
ственных 3772
Витеб@@ 3768
должны 3765
Ми@@ 3761
жда@@ 3758
мар@@ 3757
част@@ 3745
побед@@ 3737
так@@ 3735
дорож@@ 3721
Я@@ 3717
мости 3715
сен@@ 3709
ск@@ 3707
мер 3706
ний 3706
ственной 3699
конкур@@ 3698
двух 3696
организа@@ 3690
спо@@ 3689
ним 3685
скими 3682
льной 3678
где 3673
кредит@@ 3671
тора 3668
ду 3666
министра 3661
других 3656
которая 3656
нами 3655
человека 3647
зд@@ 3646
логи@@ 3642
предприятий 3637
один 3631
через 3629
мон@@ 3626
встре@@ 3622
продук@@ 3618
сфере 3614
вали 3610
привле@@ 3607
состави@@ 3606
кан@@ 3601
органов 3599
телей 3599
ностью 3589
созд@@ 3578
есть 3570
сту@@ 3568
ста 3564
возмож@@ 3562
2,@@ 3558
посе@@ 3557
тах 3552
29 3543
нет 3542
управл@@ 3541
поль@@ 3541
лены 3541
кре@@ 3540
ука@@ 3540
постанов@@ 3532
работ@@ 3532
вом 3529
поддерж@@ 3521
По@@ 3518
Украины 3518
получи@@ 3515
Националь@@ 3514
ника 3514
ера@@ 3508
вя@@ 3501
прода@@ 3495
однако 3491
Министерства 3490
сотрудни@@ 3488
Ма@@ 3486
сл@@ 3480
се 3470
вен@@ 3462
фон@@ 3454
мини@@ 3449
2014 3449
сте@@ 3441
ительно 3438
ует 3437
стоя@@ 3435
сообщении 3429
составила 3426
дом 3419
экономи@@ 3419
началь@@ 3414
процес@@ 3412
ство@@ 3410
соответствующ@@ 3406
проек@@ 3402
лия 3401
ур@@ 3396
Росси@@ 3396
призна@@ 3393
ч 3390
ениях 3389
За@@ 3386
нен@@ 3384
дви@@ 3381
яв@@ 3380
частности 3380
лен 3377
услуг 3373
МВД 3373
сою@@ 3371
пунк@@ 3369
считает 3369
тр@@ 3367
вый 3364
дости@@ 3361
един@@ 3352
граждан@@ 3351
маль@@ 3341
ск 3337
два 3332
Б 3328
торговли 3327
сторо@@ 3327
фор@@ 3326
лан@@ 3325
ито@@ 3321
экономиче@@ 3320
сотрудниче@@ 3312
планируется 3311
ситуа@@ 3310
енко 3309
люд@@ 3305
валют@@ 3305
вал 3305
сообщ@@ 3303
сбор@@ 3302
ЕС 3300
завер@@ 3291
технологи@@ 3280
пресс-@@ 3279
вой@@ 3275
нару@@ 3275
кр@@ 3272
груп@@ 3266
экономического 3265
увели@@ 3258
вопрос 3254
вра@@ 3253
уче@@ 3251
чей 3249
бли@@ 3247
ционных 3243
40 3241
200@@ 3238
гру@@ 3236
ена 3234
выполн@@ 3234
щих 3231
совершен@@ 3231
ких 3229
раза 3222
сан@@ 3214
ули@@ 3213
района 3212
могут 3207
вар@@ 3207
реш@@ 3206
период 3202
емых 3201
наль@@ 3195
строитель@@ 3193
мя@@ 3192
когда 3190
бра@@ 3180
преступл@@ 3180
тонн 3180
наруш@@ 3167
круп@@ 3163
населения 3163
стране 3161
специаль@@ 3156
Р 3155
следующ@@ 3152
13@@ 3150
три 3148
Ли@@ 3147
созда@@ 3145
мы@@ 3145
тор 3140
Ев@@ 3137
s@@ 3131
тной 3122
трлн. 3122
МИД 3118
осуществля@@ 3117
потреб@@ 3112
ян@@ 3111
лиц 3110
напомним 3107
вши@@ 3102
каж@@ 3100
ре 3090
очень 3088
специали@@ 3087
ваний 3086
ведом@@ 3085
сообща@@ 3081
пя@@ 3079
меж@@ 3076
рав@@ 3075
чение 3071
торгов 3071
интере@@ 3069
вое 3065
станов@@ 3064
комп@@ 3062
энер@@ 3062
больш@@ 3061
дня 3060
спи@@ 3058
зада@@ 3058
делега@@ 3056
ему 3054
предприяти@@ 3054
банка 3053
способ@@ 3050
вают 3046
нее 3045
свобод@@ 3045
лож@@ 3045
хся 3037
вести 3037
компании 3035
подготов@@ 3034
социаль@@ 3031
виде@@ 3028
власти 3026
лу@@ 3020
ды@@ 3008
анию 3008
Сергей 3006
сейчас 3005
аб@@ 3005
ию@@ 2995
сил 2995
провер@@ 2994
вок 2989
участников 2987
чено 2987
сут@@ 2983
увеличи@@ 2983
Динамо 2981
экспер@@ 2974
ца@@ 2972
Ку@@ 2971
мени@@ 2963
тиче@@ 2962
снизился 2962
против 2962
вырос 2959
удо@@ 2958
зер@@ 2956
проект 2954
задержан@@ 2949
20@@ 2945
31 2941
хот@@ 2940
зан@@ 2935
кий 2934
бир@@ 2932
расс@@ 2931
цу 2926
вую 2924
три@@ 2924
отдел@@ 2923
пра@@ 2921
охран@@ 2919
17@@ 2914
предприятия 2913
голо@@ 2913
мира 2895
п 2894
15@@ 2888
белорусский 2887
ох@@ 2884
занима@@ 2883
мов 2882
проведения 2880
гото@@ 2878
доро@@ 2877
тари@@ 2869
хи@@ 2867
министров 2864
результате 2860
ров@@ 2858
нало@@ 2858
2.@@ 2855
интер@@ 2855
вор@@ 2854
встречи 2854
прак@@ 2852
подписа@@ 2851
дол@@ 2850
утвер@@ 2849
мероприятий 2849
предлож@@ 2845
республикан@@ 2843
контро@@ 2843
тивных 2840
среди 2840
ваться 2836
банк 2836
объедин@@ 2834
требо@@ 2833
ители 2833
мых 2832
группы 2831
эти 2829
сче@@ 2829
кро@@ 2818
16@@ 2814
Могиле@@ 2812
тные 2811
ты@@ 2810
государ@@ 2802
ву@@ 2798
фина@@ 2792
начало 2790
подо@@ 2783
r@@ 2781
Мар@@ 2777
ые 2776
предусмотрен@@ 2776
председатель 2766
погранич@@ 2765
ряд 2764
жел@@ 2763
комиссии 2762
пози@@ 2760
свою 2757
промышлен@@ 2756
лей 2756
рын@@ 2752
визи@@ 2752
парт@@ 2745
течение 2743
нор@@ 2737
движения 2737
фо@@ 2736
ья 2736
14@@ 2735
Белорусской 2734
проти@@ 2731
рами 2729
ственно 2728
соответствии 2725
аналоги@@ 2723
инвести@@ 2721
пад@@ 2721
режи@@ 2717
Украи@@ 2706
тного 2703
-то 2701
системы 2700
бер@@ 2698
сты 2697
первый 2697
ева 2693
получ@@ 2693
ха@@ 2692
чного 2686
совер@@ 2685
нер@@ 2683
кандида@@ 2682
ры 2682
правозащит@@ 2680
начала 2672
государственного 2671
ть@@ 2670
18@@ 2661
гово@@ 2661
демокра@@ 2656
очеред@@ 2654
пресс-конферен@@ 2652
программы 2650
бе 2649
вича 2648
вании 2644
рай@@ 2642
област@@ 2638
Ар@@ 2636
пройдет 2631
2-@@ 2630
ВД 2630
Бо@@ 2628
l@@ 2627
заседании 2627
ген@@ 2624
ционного 2624
промышленности 2621
лена 2619
имен@@ 2619
сли 2618
Миха@@ 2618
государственной 2617
следо@@ 2616
дальнейш@@ 2615
простран@@ 2614
ститу@@ 2612
оператив@@ 2612
валю@@ 2610
199@@ 2610
тра 2607
ше 2605
нар@@ 2605
ющи@@ 2604
Кон@@ 2598
примен@@ 2594
эффектив@@ 2594
ших 2593
u@@ 2592
каз@@ 2590
Ва@@ 2589
день 2582
тить 2582
предостав@@ 2582
чу 2578
обла@@ 2578
представителей 2577
финанси@@ 2577
внимание 2575
лов@@ 2573
тран@@ 2571
извест@@ 2570
гии 2567
материа@@ 2566
аний 2566
бизне@@ 2566
гос@@ 2565
годы 2563
ити@@ 2561
ника@@ 2560
счет 2553
твор@@ 2552
ениями 2549
тии 2546
мой 2545
Та@@ 2545
ге@@ 2544
жения 2539
показател@@ 2539
им@@ 2538
пока 2536
орга@@ 2536
платы 2534
ж 2534
эта@@ 2533
проекта 2532
ых 2531
тер 2530
прокура@@ 2527
Россия 2527
вел@@ 2526
январь 2526
организаци@@ 2521
1-@@ 2520
чить 2519
тан@@ 2519
перспек@@ 2517
ш 2517
мина@@ 2517
заместитель 2517
обращ@@ 2515
мнению 2513
ствия 2508
поста@@ 2505
Си@@ 2504
нау@@ 2504
кана@@ 2501
уси@@ 2499
организо@@ 2498
енность 2492
незакон@@ 2490
лий 2489
горо@@ 2489
той 2487
сно@@ 2487
импор@@ 2485
цены 2483
Государ@@ 2483
вли@@ 2482
Алек@@ 2481
готов@@ 2479
ори@@ 2477
спек@@ 2474
вопросам 2472
актив@@ 2471
проектов 2468
решения 2467
полага@@ 2466
ана@@ 2462
дело 2460
прави@@ 2460
людей 2460
муж@@ 2458
главы 2458
чемпионата 2457
мож@@ 2457
массо@@ 2453
территор@@ 2453
борь@@ 2452
представители 2451
образования 2449
итель 2448
ческие 2446
Сер@@ 2446
па 2444
отмечается 2443
2007 2443
хокке@@ 2443
работать 2442
прошло@@ 2440
пря@@ 2438
оцен@@ 2438
чь 2437
белорусская 2434
Пар@@ 2434
надо 2433
ски 2432
проис@@ 2431
генера@@ 2431
чер@@ 2426
Ро@@ 2425
обо@@ 2425
высту@@ 2424
российских 2421
иг@@ 2419
столи@@ 2419
дополнитель@@ 2417
милиции 2417
внутренних 2416
наблю@@ 2415
вопро@@ 2415
су 2413
вших 2409
нынеш@@ 2409
иностран@@ 2403
c@@ 2403
раз 2401
Брест@@ 2399
миро@@ 2398
свя@@ 2397
кур@@ 2394
тических 2394
исклю@@ 2392
обвин@@ 2388
ву 2388
обязатель@@ 2387
можно 2387
лод@@ 2386
белорусские 2386
иты@@ 2383
мл@@ 2381
Владимир 2380
ющие 2377
че 2377
° 2376
принима@@ 2376
сед@@ 2375
возду@@ 2375
пе 2373
отношений 2373
ха 2371
ием 2369
ресур@@ 2368
ер 2368
пассажи@@ 2368
куп@@ 2367
необходимо 2364
ждение 2363
имо@@ 2362
имуще@@ 2361
РФ 2360
ря@@ 2358
министр 2358
отмети@@ 2357
над@@ 2356
ча 2352
жи 2351
ема@@ 2349
оч@@ 2346
секретар@@ 2345
особ@@ 2345
бой 2345
ходит 2344
каза@@ 2342
диа@@ 2339
ст. 2338
части 2337
сокра@@ 2336
рост 2331
рон@@ 2331
моло@@ 2331
ели@@ 2330
ите@@ 2330
итар@@ 2328
поя@@ 2328
предпринима@@ 2326
Ле@@ 2324
отра@@ 2320
оказ@@ 2318
компания 2317
во-@@ 2314
ходов 2312
второ@@ 2312
сдела@@ 2310
зом 2308
концер@@ 2308
дут 2306
согласно 2305
председателя 2304
сел@@ 2303
ну 2303
электро@@ 2301
ност@@ 2300
ровано 2299
0-@@ 2298
четвер@@ 2298
переда@@ 2297
пара@@ 2296
гов 2296
защит@@ 2295
дру@@ 2294
белорусско-@@ 2294
лик@@ 2294
отдель@@ 2293
введ@@ 2293
гда 2290
тно 2290
министер@@ 2289
детей 2288
меры 2286
треть@@ 2286
мо 2284
ситуации 2283
сох@@ 2281
парламен@@ 2281
зарегистри@@ 2279
ванию 2279
шо@@ 2274
активи@@ 2271
наход@@ 2271
тру@@ 2271
поез@@ 2271
средства 2271
ссо@@ 2267
вз@@ 2265
случа@@ 2264
меньше 2263
уровне 2263
дет 2263
зы 2262
собра@@ 2262
месяцев 2262
вместе 2262
вне@@ 2262
кто 2262
лением 2259
чены 2259
связан@@ 2258
ООН 2258
све@@ 2258
зе@@ 2258
Национального 2257
европей@@ 2255
вили 2254
ванием 2253
ностей 2253
этих 2252
ожида@@ 2251
фе@@ 2249
ствовать 2249
прош@@ 2248
чно 2248
дина@@ 2245
гу 2244
няя 2242
пис@@ 2242
акции 2240
доллара 2238
Европы 2237
строительства 2237
иск@@ 2237
Цен@@ 2235
александр 2233
Беларусью 2231
возбу@@ 2230
60 2227
транспорта 2227
власт@@ 2227
ун@@ 2226
мит@@ 2223
инвестиций 2222
Ц@@ 2220
ба 2218
Таможенного 2218
украин@@ 2218
5-@@ 2217
задержа@@ 2215
нуж@@ 2211
Ан@@ 2210
рование 2210
возможность 2210
Фед@@ 2210
замест@@ 2208
дирек@@ 2208
составляет 2207
собы@@ 2205
Ба@@ 2203
прогно@@ 2203
деми@@ 2201
которое 2200
ах 2198
каче@@ 2198
экспорт 2195
согла@@ 2195
пресс-службы 2195
пли@@ 2195
полкома 2194
политики 2193
игра@@ 2193
рам 2189
издел@@ 2185
размере 2184
Са@@ 2184
тай@@ 2182
ход 2178
ели 2176
перед 2172
одо@@ 2169
Гомель@@ 2168
Лит@@ 2168
Вик@@ 2164
планиру@@ 2162
маршру@@ 2161
зу 2159
Республи@@ 2158
ставля@@ 2155
луч@@ 2154
пит@@ 2154
инспек@@ 2153
трен@@ 2146
чу@@ 2146
тысяч 2144
нарко@@ 2144
работу 2144
настоящее 2140
стар@@ 2140
счита@@ 2137
одер@@ 2137
Международ@@ 2136
совета 2135
вид@@ 2135
здра@@ 2134
Но@@ 2134
чным 2134
запре@@ 2132
заня@@ 2130
Мингорисполкома 2128
премь@@ 2126
Александра 2123
100 2122
российского 2122
маш@@ 2120
тябре 2119
одно@@ 2118
З 2117
встрече 2115
должен 2113
чной 2112
зов 2111
период@@ 2110
Ин@@ 2109
вского 2109
информацион@@ 2106
уда@@ 2105
двусторон@@ 2103
Гроднен@@ 2103
туры 2102
сайте 2101
ющей 2101
документов 2101
СМИ 2101
ок@@ 2101
3-@@ 2095
ру 2094
ступл@@ 2093
экономической 2093
камп@@ 2090
план@@ 2087
торов 2086
фици@@ 2080
количество 2079
объек@@ 2078
цен 2075
новых 2073
циа@@ 2071
вской 2070
выпол@@ 2069
виси@@ 2069
турни@@ 2069
намер@@ 2068
согласо@@ 2068
помощ@@ 2066
оппози@@ 2066
чего 2065
физи@@ 2064
сист@@ 2063
щен@@ 2060
яд@@ 2059
партии 2055
ительных 2053
рах 2053
мили@@ 2051
Андрей 2050
чен 2049
торгов@@ 2048
чный 2047
очередь 2046
ятся 2046
истор@@ 2043
ченных 2043
чин@@ 2043
маши@@ 2042
образо@@ 2042
А.@@ 2041
превы@@ 2041
рг@@ 2039
ерации 2039
ави@@ 2039
шел 2038
Министер@@ 2038
Фран@@ 2037
условиях 2037
много@@ 2036
уча@@ 2033
независи@@ 2032
государственных 2031
I@@ 2031
Пу@@ 2030
милли@@ 2029
подтвер@@ 2028
несколько 2026
сор@@ 2025
дио@@ 2023
ся@@ 2021
энерге@@ 2019
това@@ 2015
систе@@ 2014
районе 2013
n@@ 2012
ител@@ 2011
сам@@ 2010
заседания 2009
ителями 2009
зва@@ 2008
денеж@@ 2008
ближайш@@ 2008
действия 2006
каса@@ 2003
строй@@ 2000
Пе@@ 2000
поэтому 1996
суд 1994
ток 1993
ч. 1993
услуги 1991
кред@@ 1990
рассмотр@@ 1990
енности 1988
ложи@@ 1987
жден@@ 1987
алкого@@ 1986
ый 1984
гар@@ 1982
Минской 1979
лимп@@ 1979
дар@@ 1977
процен@@ 1977
лег@@ 1973
ческий 1971
обществен@@ 1971
руководитель 1968
мент 1968
которой 1967
выступа@@ 1965
международных 1965
? 1965
кова 1965
либо 1963
зии 1960
своей 1960
погиб@@ 1958
неф@@ 1956
мати@@ 1956
рейтин@@ 1954
таможен@@ 1948
расследо@@ 1946
административ@@ 1945
льный 1941
другие 1940
экспор@@ 1938
чные 1934
вопросов 1934
первом 1933
контроля 1933
таким 1932
интернет-@@ 1931
бюдже@@ 1929
внеш@@ 1929
сек@@ 1927
КГ@@ 1926
лиде@@ 1924
преступ@@ 1922
конструк@@ 1919
ограни@@ 1917
ино@@ 1916
ответ@@ 1914
причи@@ 1913
рынке 1913
вла@@ 1913
Москве 1913
лей@@ 1913
70 1913
кварти@@ 1912
работ 1912
увеличился 1912
произош@@ 1911
фа@@ 1910
вле@@ 1910
службы 1908
регули@@ 1908
стре@@ 1908
прав 1906
лению 1904
центр 1903
отно@@ 1903
принято 1902
сколь@@ 1901
тому 1901
выпус@@ 1901
вос@@ 1898
цер@@ 1898
наде@@ 1896
продоволь@@ 1895
хозяйства 1894
ший 1894
ница 1893
инициа@@ 1893
годо@@ 1893
состоится 1889
условий 1888
ровал 1887
стран@@ 1885
кович 1885
обеспечения 1883
расшир@@ 1882
трех 1880
республи@@ 1879
ОБСЕ 1879
беларусь 1878
статисти@@ 1878
дела 1877
пять 1877
сове@@ 1876
ениям 1875
итор@@ 1871
юриди@@ 1869
агент@@ 1869
подпи@@ 1869
оборо@@ 1869
постоян@@ 1868
еха@@ 1866
случае 1865
ствами 1864
вице-@@ 1863
плате@@ 1863
общего 1862
сотрудники 1861
пус@@ 1860
таль@@ 1860
ственности 1860
стри@@ 1860
ой 1858
ряда 1858
ответственности 1857
гре@@ 1856
помощи 1856
отмечает 1855
ат@@ 1854
взаимодействия 1853
законодатель@@ 1853
товаро@@ 1853
мисси@@ 1850
дал 1849
макси@@ 1847
хоро@@ 1847
исполн@@ 1846
боле@@ 1845
Нико@@ 1845
вано 1845
ителем 1844
принци@@ 1844
позволи@@ 1843
аре@@ 1843
санк@@ 1841
лиш@@ 1841
m@@ 1840
шего 1838
мед@@ 1837
льные 1837
Казахстана 1835
ждено 1834
над 1834
баты@@ 1833
полномо@@ 1832
днем 1831
выяв@@ 1830
рассмо@@ 1829
группа 1828
кие 1827
продолжа@@ 1824
графи@@ 1823
без@@ 1822
выбо@@ 1822
полнитель@@ 1821
мн@@ 1818
одного 1815
площад@@ 1813
35 1813
которого 1812
желез@@ 1811
освобо@@ 1810
ван 1810
медицин@@ 1809
вский 1809
ам 1808
молод@@ 1808
роз@@ 1808
премьер-@@ 1806
дель@@ 1804
регио@@ 1804
ден 1801
сторон@@ 1801
обсужда@@ 1801
приобре@@ 1801
слу@@ 1799
метров 1799
техники 1798
дипло@@ 1798
ков@@ 1797
ска 1794
потер@@ 1794
тар@@ 1793
4-@@ 1792
пошли@@ 1792
рованы 1792
отмеча@@ 1789
раст@@ 1787
отнош@@ 1785
деб@@ 1783
сделок 1780
Герм@@ 1780
производство 1780
креди@@ 1778
образом 1778
уют 1777
себя 1777
дела@@ 1776
летний 1775
щения 1775
фед@@ 1775
которо@@ 1775
плюс 1774
Ви@@ 1774
центра 1774
правл@@ 1774
мероприятия 1773
форма@@ 1773
стоимость 1773
страхо@@ 1772
мир@@ 1771
ватель@@ 1771
ленных 1771
премьер-министр 1770
профе@@ 1767
ческим 1766
ционной 1766
пора@@ 1765
насел@@ 1764
предусматри@@ 1764
таких 1760
тки 1758
пы@@ 1758
возможности 1757
80 1755
ваны 1754
бре 1754
мом 1754
ГАИ 1752
До@@ 1751
встреча 1751
деятельность 1750
ая 1750
пресс-службе 1750
осуществ@@ 1749
содерж@@ 1748
цев 1747
ступи@@ 1746
8-@@ 1746
общественных 1746
пло@@ 1745
тил 1745
Польш@@ 1745
предвар@@ 1744
назна@@ 1743
заседание 1742
меся@@ 1742
трлн 1741
бюджета 1741
еб@@ 1740
Содружества 1739
источ@@ 1739
народ@@ 1739
сла 1739
шим 1739
автобус@@ 1738
отме@@ 1735
предлага@@ 1734
хозя@@ 1733
учетом 1731
образ@@ 1730
стана 1729
in@@ 1729
тически 1729
реаль@@ 1729
укре@@ 1728
зр@@ 1728
право 1726
свои 1725
тики 1724
никами 1724
ф 1723
составля@@ 1723
мые 1723
положение 1722
оборот 1722
развитие 1722
сом 1721
коммен@@ 1721
качестве 1720
молодеж@@ 1720
Ком@@ 1720
Новости 1719
выс@@ 1719
Ра@@ 1718
второй 1717
дни@@ 1717
бор@@ 1716
права 1716
находится 1716
законодательства 1715
дома 1715
тябр@@ 1714
поступи@@ 1712
культуры 1712
взя@@ 1710
условия 1710
поддер@@ 1710
заинтересо@@ 1710
внешне@@ 1708
ГУВД 1707
вин@@ 1706
свободы 1705
тивы 1704
док 1703
лу 1702
с-@@ 1700
райо@@ 1700
участники 1700
шко@@ 1700
заплани@@ 1700
пользо@@ 1700
ходы 1700
убеж@@ 1699
Дмитрий 1699
зая@@ 1699
газа 1698
уровень 1696
итета 1696
выраз@@ 1696
люди 1694
6-@@ 1693
обе@@ 1691
цио@@ 1689
зе 1689
депута@@ 1687
внешней 1686
лом 1685
банков@@ 1685
современ@@ 1684
представитель 1684
бро@@ 1683
исследо@@ 1683
рой 1683
такое 1682
действий 1681
труда 1681
отношения 1681
жа 1681
комисси@@ 1680
этим 1680
РИА 1680
смер@@ 1680
прой@@ 1679
ваются 1677
российский 1675
предел@@ 1675
нима@@ 1675
своих 1675
выбор@@ 1674
коллек@@ 1674
субъек@@ 1674
оте@@ 1672
нил 1672
поли@@ 1672
вам 1670
7-@@ 1669
преду@@ 1668
пода@@ 1668
Мак@@ 1667
стаби@@ 1662
регистра@@ 1662
целью 1659
g@@ 1658
получа@@ 1658
транспортных 1657
енной 1656
езд 1655
45 1655
внутрен@@ 1654
целях 1653
чению 1652
цитирует 1652
кого 1651
тых 1648
лукашенко 1648
ину 1647
колле@@ 1647
S@@ 1646
вший 1646
тура 1646
расче@@ 1643
работников 1643
многи@@ 1642
администра@@ 1641
шко 1640
всем 1640
конферен@@ 1639
соглашения 1638
правительство 1637
сте 1637
обороны 1636
состав 1635
торы 1635
Союз@@ 1632
ственные 1632
реализа@@ 1631
ей@@ 1631
рей@@ 1631
стам 1630
У 1629
9-@@ 1626
гах 1626
саль@@ 1625
включа@@ 1624
изъ@@ 1623
объектов 1623
полко@@ 1623
вов 1622
реализо@@ 1621
харак@@ 1621
дерев@@ 1621
струк@@ 1620
цам 1619
общей 1617
сня@@ 1617
подраздел@@ 1616
импорт 1615
стр@@ 1613
А 1612
первого 1612
функ@@ 1612
даже 1611
наи@@ 1610
БАТЭ 1608
экспорта 1607
ющий 1607
фонда 1607
ночью 1606
3.@@ 1604
бел@@ 1601
стоимо@@ 1601
v@@ 1600
жении 1600
шении 1599
менее 1597
роста 1597
нефте@@ 1597
щем 1596
дор@@ 1596
находи@@ 1596
часть 1596
дили 1596
тий 1595
квали@@ 1595
прекра@@ 1595
прошлого 1595
рованных 1595
Владими@@ 1594
площади 1594
жизни 1594
1,5 1593
тин 1593
инве@@ 1591
целом 1590
выход@@ 1589
избиратель@@ 1589
выше 1588
рует 1588
гер@@ 1588
защиты 1587
членов 1587
развити@@ 1587
лли@@ 1586
одной 1586
деся@@ 1586
Се@@ 1586
енные 1586
мета@@ 1585
мет@@ 1584
Моск@@ 1584
кли@@ 1584
90 1583
ОДКБ 1583
Че@@ 1583
наро@@ 1582
чил 1582
пусти@@ 1582
дей@@ 1581
шли 1581
еся 1581
АО 1581
ительного 1580
благо@@ 1577
центре 1574
бла@@ 1574
визита 1574
выра@@ 1573
работа 1572
должна 1571
стать@@ 1571
ака@@ 1569
подготовки 1569
ске 1568
центра@@ 1566
индивидуаль@@ 1566
наиболее 1566
опы@@ 1565
шта@@ 1565
газета 1564
разработ@@ 1563
задолж@@ 1560
из-за 1559
успе@@ 1555
облис@@ 1553
налого@@ 1553
теку@@ 1551
матри@@ 1551
дии 1551
потребитель@@ 1550
ДТП 1550
вари@@ 1550
10,@@ 1549
эксплуата@@ 1549
выми 1548
ительные 1548
улице 1546
тором 1546
ред@@ 1546
четыре 1546
подпис@@ 1546
датель@@ 1545
выборов 1544
размещ@@ 1543
тр 1542
вели@@ 1542
такой 1541
много 1541
вклю@@ 1540
обнару@@ 1540
апрел@@ 1540
тур 1540
ими 1538
веро@@ 1537
лья 1537
наказ@@ 1536
текущего 1534
вана 1532
являются 1532
личных 1531
Ав@@ 1529
жей 1529
Бре@@ 1526
предприниматель@@ 1526
закры@@ 1526
трудо@@ 1525
стано@@ 1525
УК 1525
суда 1525
улуч@@ 1525
тиру@@ 1524
доста@@ 1524
ходи@@ 1523
щение 1523
ствования 1522
контрак@@ 1522
Минск@@ 1521
нев@@ 1521
Мясни@@ 1521
фикации 1520
общественного 1520
призы@@ 1519
помещ@@ 1519
кодек@@ 1519
дека@@ 1518
проведение 1518
оказа@@ 1517
связей 1517
хов@@ 1515
станции 1515
здоров@@ 1515
переговоров 1515
ель 1514
интегра@@ 1513
комен@@ 1513
выро@@ 1512
капита@@ 1510
позво@@ 1508
лых 1508
здесь 1508
лищ@@ 1508
сах 1507
порядка 1507
стандар@@ 1506
будем 1506
ляет 1506
страте@@ 1505
почти 1504
ждены 1504
В 1504
председател@@ 1504
соглашение 1503
создан@@ 1503
учрежд@@ 1500
ствие 1499
семь 1498
ут 1497
изи@@ 1496
.0@@ 1495
12,@@ 1495
слож@@ 1494
нию 1494
ущ@@ 1493
32 1492
али@@ 1492
суще@@ 1492
АЭС 1489
гл@@ 1489
банков 1488
показа@@ 1488
нефти 1488
Про@@ 1487
гну@@ 1487
обя@@ 1487
ставки 1486
Европей@@ 1486
уз@@ 1485
цкого 1485
лит@@ 1484
переговоры 1483
комитет 1482
спорта 1481
объема 1480
силу 1479
пострада@@ 1479
рож@@ 1479
Д 1477
социальной 1475
оборудования 1474
иннова@@ 1473
странами 1473
d@@ 1472
предыду@@ 1472
мех@@ 1472
профи@@ 1472
первые 1471
создания 1471
категор@@ 1470
лин@@ 1469
продуктов 1468
уровня 1468
дател@@ 1467
выигра@@ 1465
вила 1464
совещ@@ 1464
пример@@ 1463
которым 1461
объеме 1461
сельхо@@ 1461
региональ@@ 1461
прошед@@ 1460
научно-@@ 1460
совместных 1460
строительство 1460
универс@@ 1459
циони@@ 1458
лежа@@ 1458
ублико@@ 1458
буду@@ 1458
доба@@ 1457
умень@@ 1457
ера 1456
комите@@ 1456
приняти@@ 1456
цед@@ 1454
директор 1454
ган@@ 1452
1,@@ 1451
задер@@ 1451
культур@@ 1451
зем@@ 1451
Шве@@ 1451
Тур@@ 1448
s 1448
сей 1447
Пер@@ 1443
вре@@ 1440
поряд@@ 1439
h@@ 1438
сбо@@ 1438
плата 1436
выда@@ 1433
p@@ 1431
ноя@@ 1427
33 1425
шая 1424
праз@@ 1416
мым 1415
ню 1414
куро@@ 1414
офи@@ 1414
вары 1411
бюдж@@ 1409
34 1408
щего 1398
чемпиона@@ 1395
ступа@@ 1392
Беларус@@ 1385
суд@@ 1382
бен@@ 1380
нок 1380
! 1379
завод 1376
указан@@ 1374
зло@@ 1372
Ни@@ 1371
y@@ 1371
зако@@ 1370
C@@ 1368
2015 1365
мероприяти@@ 1364
Гру@@ 1361
дет@@ 1357
тин@@ 1353
явля@@ 1351
лю 1350
пропус@@ 1350
лови@@ 1350
росси@@ 1347
11.@@ 1347
Не@@ 1346
февра@@ 1342
e 1339
13,@@ 1339
вала 1337
дра@@ 1337
произ@@ 1335
долла@@ 1334
дах 1334
норма@@ 1333
юр@@ 1333
ню@@ 1332
прост@@ 1331
пр@@ 1327
мя 1326
Лат@@ 1324
Грод@@ 1322
ступ@@ 1321
сульта@@ 1320
A@@ 1317
тыся@@ 1315
закон@@ 1313
фору@@ 1313
пас@@ 1313
сказа@@ 1312
раны 1312
уни@@ 1311
газ 1310
вза@@ 1309
взаим@@ 1309
количе@@ 1308
Бан@@ 1307
футбо@@ 1305
спа@@ 1305
8.@@ 1304
напом@@ 1301
12@@ 1300
Гомель 1296
электрон@@ 1296
75 1294
наб@@ 1293
ня 1292
амер@@ 1292
Ста@@ 1289
соответ@@ 1288
500 1288
мента 1288
38 1287
розы@@ 1287
мь@@ 1287
сь@@ 1286
лек@@ 1285
куль@@ 1281
други@@ 1280
Т 1279
указ 1277
55 1276
11,@@ 1276
что@@ 1275
гран@@ 1275
сточ@@ 1272
уров@@ 1271
2006 1268
ейств@@ 1266
вел 1265
сайт 1265
Кыргыз@@ 1264
скон@@ 1263
лон@@ 1262
14,@@ 1261
четы@@ 1260
мало@@ 1259
стан 1257
Су@@ 1256
43 1255
уж@@ 1255
Анато@@ 1251
тех@@ 1251
фика@@ 1250
сам 1244
кры@@ 1244
36 1244
200 1243
ро 1243
матч 1243
39 1240
запа@@ 1238
гранич@@ 1236
37 1236
купа@@ 1232
гон@@ 1231
шай@@ 1228
стой@@ 1228
B@@ 1226
матери@@ 1225
бое@@ 1224
41 1219
ТС 1214
заработ@@ 1213
мещ@@ 1213
лак@@ 1213
42 1209
льным 1207
гаран@@ 1206
час 1204
1.0@@ 1204
вест@@ 1202
T@@ 1199
лем 1199
ша 1198
стане 1196
ок 1194
структуры 1193
транс@@ 1192
попы@@ 1188
Ло@@ 1184
наза@@ 1184
46 1183
гражда@@ 1183
Мета@@ 1182
этому 1182
эта 1182
подчер@@ 1181
ДС 1180
снизи@@ 1173
Белорусси@@ 1171
кол@@ 1170
лур@@ 1169
руп@@ 1168
.by 1168
существ@@ 1167
МА@@ 1165
ско-@@ 1165
авгу@@ 1164
санд@@ 1161
клю@@ 1160
Га@@ 1159
соответств@@ 1158
РУ@@ 1157
рус@@ 1156
201@@ 1156
соста@@ 1154
мощ@@ 1150
органы 1148
мп@@ 1147
- 1147
Шах@@ 1145
Ла@@ 1143
Сове@@ 1142
15,@@ 1142
голов@@ 1140
За 1139
4.@@ 1138
Да@@ 1138
48 1138
спец@@ 1135
памя@@ 1134
сме@@ 1134
тным 1133
зен@@ 1132
Ген@@ 1129
Нацбанка 1128
ставе 1128
Андре@@ 1128
структур@@ 1127
финан@@ 1126
ноч@@ 1124
льго@@ 1121
нейш@@ 1116
M@@ 1110
тако@@ 1109
предо@@ 1108
www.@@ 1106
2,5 1105
Бер@@ 1104
жиз@@ 1103
Ре@@ 1101
кв. 1101
44 1100
оди@@ 1099
скры@@ 1098
фра@@ 1093
След@@ 1091
месяца 1089
муналь@@ 1088
май@@ 1086
мае 1085
балан@@ 1084
49 1083
16,@@ 1080
суб@@ 1079
Неза@@ 1078
бло@@ 1077
газе@@ 1073
наз@@ 1069
27@@ 1069
трак@@ 1067
шке@@ 1065
сол 1065
Дмит@@ 1063
доля 1060
МВФ 1060
емся 1059
надз@@ 1058
30@@ 1057
n 1057
выя@@ 1057
лай 1055
йцар@@ 1055
зра@@ 1053
орг@@ 1052
заме@@ 1052
65 1051
клу@@ 1051
партамента 1051
взаимодейств@@ 1050
потре@@ 1048
стер@@ 1048
Кар@@ 1047
лат@@ 1046
ора 1045
кая 1045
цо@@ 1044
То@@ 1042
бал@@ 1041
сты@@ 1041
ет@@ 1040
рАзЭС 1040
47 1039
моженного 1039
Ру@@ 1036
17,@@ 1035
Па@@ 1034
b@@ 1032
чая 1032
груз@@ 1030
выез@@ 1028
пят@@ 1024
ствах 1024
er@@ 1022
53 1022
сегод@@ 1022
52 1021
лоб@@ 1020
штраф@@ 1019
ас@@ 1017
хар@@ 1017
тсмен@@ 1016
няш@@ 1015
сдел@@ 1015
содер@@ 1014
198@@ 1014
сных 1012
ап@@ 1009
свед@@ 1008
шан@@ 1006
29@@ 1005
E@@ 1005
тери@@ 1005
28@@ 1004
км 1002
P@@ 1002
тон@@ 1002
клад@@ 1000
полн@@ 1000
ман 997
реали@@ 996
дву@@ 995
сц@@ 995
бира@@ 994
мне 993
X@@ 993
сной 990
кад@@ 989
сезо@@ 986
бед@@ 986
валюты 985
пед@@ 985
Сан@@ 985
нец 985
мен 984
даль@@ 984
моби@@ 982
тко@@ 981
тая 980
Газпро@@ 978
чах 975
най@@ 975
музы@@ 974
Лю@@ 973
коль@@ 973
формы 971
рек@@ 970
зно@@ 968
57 967
лог 967
51 966
Ер@@ 964
евро@@ 964
служа@@ 963
йств@@ 963
56 961
кую 961
бле@@ 961
БВФБ 958
йных 958
акти@@ 956
оборудо@@ 956
реги@@ 955
Азербай@@ 955
мпература 952
лы@@ 952
тый 950
ал@@ 950
назы@@ 950
клуба 949
k@@ 948
чная 948
мах 947
бур@@ 947
26@@ 946
58 945
вости 945
актуаль@@ 943
ОО@@ 942
затра@@ 941
ам@@ 939
19,@@ 939
град@@ 939
сне@@ 938
мага@@ 936
развит@@ 936
мк@@ 934
ху@@ 933
гна@@ 932
Казахстан 930
сказала 930
пу 929
ква@@ 928
услови@@ 925
к-@@ 923
план 922
18,@@ 921
Генера@@ 920
ще 919
лега@@ 916
плана 915
54 912
служб@@ 912
дам 912
еме 907
тан 906
зит@@ 905
300 904
одейств@@ 903
na@@ 901
фран@@ 901
руй@@ 899
or@@ 897
Вен@@ 897
стала 897
завод@@ 895
прось@@ 894
ТА 894
рий 893
ега@@ 892
D@@ 888
3,5 885
фля@@ 883
органи@@ 881
лдо@@ 881
Рад@@ 881
звы@@ 877
БНФ 877
казан@@ 876
устана@@ 874
Бела@@ 873
R@@ 872
нер 872
бар@@ 870
гам 870
Пала@@ 869
1,8 869
РУП 869
59 868
Вы@@ 868
ним@@ 867
1,4 867
фы 866
I 863
ым 862
воль@@ 861
1,2 860
парламента 859
1,7 857
68 855
учре@@ 855
вет 855
сольства 855
an@@ 853
Белста@@ 853
1,3 852
гуля@@ 850
61 848
1,6 846
базы 846
Рус@@ 842
объе@@ 842
министра@@ 841
Бу@@ 840
тная 838
чень 837
F@@ 836
бес@@ 835
яр@@ 834
гея 834
ней@@ 832
лета 831
ут@@ 830
науч@@ 830
предсе@@ 829
вый@@ 827
январ@@ 827
20,@@ 827
чную 826
поч@@ 825
соль@@ 824
И 823
Гомел@@ 823
пада@@ 823
Ад@@ 823
М 822
40@@ 822
ио@@ 820
неда@@ 820
справ@@ 818
9.@@ 817
пала@@ 816
напо@@ 815
4,5 815
стати@@ 814
0,5 813
63 812
скла@@ 812
жу 811
62 810
мам 809
ферен@@ 808
спро@@ 808
5.@@ 808
руч@@ 807
пел@@ 806
67 805
вален@@ 803
вертайме 802
72 801
яти@@ 798
.000 798
ски@@ 797
Але@@ 796
Санкт-Пе@@ 794
свой 794
можен@@ 794
закона 794
7,5 793
еры 793
6.@@ 792
эксперты 792
лах 791
7.@@ 791
ваем 791
76 789
дж@@ 788
2,1 788
l 787
тро 787
завода 786
f@@ 785
несен@@ 784
стру@@ 784
1,9 784
табель@@ 782
лян@@ 781
базе 780
Нац@@ 780
яко@@ 779
el@@ 778
85 777
вну@@ 777
члены 776
N@@ 776
1,1 775
месяц 775
грам@@ 775
Венесуэ@@ 774
мел@@ 773
тое 772
гно@@ 771
бу 771
спы@@ 770
64 767
плани@@ 767
подчеркну@@ 766
вод 764
форм 763
хол@@ 761
Тад@@ 760
2,2 760
зиден@@ 759
нел@@ 759
друго@@ 759
V@@ 758
кварта@@ 758
бод@@ 756
a 755
&@@ 755
законо@@ 755
квартале 753
2,4 753
меда@@ 751
думаю 750
убли@@ 749
тную 749
Казах@@ 748
фонд 747
хва@@ 747
2,3 746
прес@@ 746
чан@@ 744
штаб@@ 742
сай@@ 742
народа 741
прин@@ 741
настоя@@ 740
лога 739
чай@@ 739
39@@ 737
Урал@@ 737
льная 734
Лука@@ 734
II 734
челове@@ 733
рак@@ 729
фут@@ 728
ar@@ 727
сферах 727
Кубка 726
Павел 726
конкурс 725
услу@@ 723
Бар@@ 722
Ры@@ 721
произо@@ 720
йш@@ 719
новым 718
Вал@@ 718
G@@ 717
валь@@ 713
мера@@ 713
оби@@ 712
вета 712
L@@ 709
разу 704
зай@@ 700
ковых 700
дек@@ 700
выпла@@ 699
тора@@ 699
знача@@ 697
роб@@ 697
дея@@ 696
сферы 695
ляр@@ 693
избира@@ 692
нен 692
эле@@ 691
юз@@ 690
ара 689
сфер@@ 687
СКА 686
щее 685
мере 684
меро@@ 684
клад 683
другой 683
кг 683
стат@@ 681
Бара@@ 678
пля@@ 678
пы 677
Ф 674
минист@@ 672
Меж@@ 671
t 671
СС@@ 670
зве@@ 670
тым 669
такая 668
чемпио@@ 668
Л 668
нара@@ 660
иту@@ 660
жар@@ 660
бус@@ 657
d 654
цах 654
Й@@ 654
ката@@ 650
вяз@@ 649
шенко 649
H@@ 647
шу@@ 644
устано@@ 642
обли@@ 640
мно@@ 639
кну@@ 638
мышлен@@ 637
связ@@ 633
сва@@ 632
цей 630
ом@@ 627
тон 625
чле@@ 625
л-@@ 624
сколько 622
нены 621
Ч 617
g 611
лам 610
горис@@ 608
яна 604
УП 601
Ана@@ 600
неза@@ 598
срав@@ 596
Бал@@ 595
говоров 589
чита@@ 589
эти@@ 588
веча@@ 587
кв@@ 581
смен@@ 581
меди@@ 578
спе@@ 578
жо@@ 577
циаль@@ 576
член@@ 575
итет 573
Сла@@ 570
орган@@ 570
разо@@ 569
двух@@ 569
раздел@@ 566
тре 566
O@@ 563
эн@@ 563
циональ@@ 562
стор@@ 562
зво@@ 561
вай@@ 559
безо@@ 554
сту 553
парта@@ 552
штра@@ 552
вмест@@ 551
несены 551
– 548
долл@@ 547
жан@@ 544
m 541
фер@@ 540
зпро@@ 540
y 539
дума@@ 539
око@@ 539
т-@@ 537
элек@@ 536
сообщи@@ 531
ствам 529
секре@@ 528
продол@@ 528
Укра@@ 525
W@@ 525
бера@@ 524
r 523
вним@@ 519
джа@@ 514
сна@@ 510
АТ@@ 510
тку 507
КК 504
Кры@@ 503
зя@@ 502
Г 495
мат 493
w@@ 493
вах 493
тай 492
сно 492
Пра@@ 491
которы@@ 490
расши@@ 489
туаль@@ 488
… 486
Куб@@ 482
права@@ 482
Щ@@ 481
фек@@ 479
полно@@ 471
СЕ 469
эконо@@ 465
z@@ 465
Ме@@ 464
пак@@ 464
здо@@ 461
гля@@ 459
Влади@@ 454
спра@@ 452
пан@@ 451
заг@@ 450
сю 448
Ц 446
Мингорис@@ 445
енса@@ 444
ё@@ 444
льную 443
дз@@ 442
Ди@@ 440
жур@@ 438
стату@@ 436
вызва@@ 434
инте@@ 434
ува@@ 432
ожи@@ 430
зах@@ 429
юза 425
Вя@@ 425
нан@@ 424
Поль@@ 422
U@@ 415
засед@@ 414
бай@@ 412
A 412
деятель@@ 412
ламен@@ 411
джан@@ 411
ини@@ 411
бель@@ 409
ура@@ 409
сем@@ 408
Н 407
осво@@ 407
роны 406
Гер@@ 405
Х 404
укра@@ 402
род 397
рана 393
C 393
клуб@@ 392
нова@@ 391
Э 390
необ@@ 390
бок 389
Анд@@ 387
джана 386
эф@@ 382
коно@@ 382
торо@@ 381
чемп@@ 378
тры 377
ху 371
поги@@ 370
эффек@@ 368
СК@@ 366
д. 366
мень@@ 365
стоян@@ 365
зам 361
дем 361
Ля@@ 360
ску 359
Ж 358
k 357
инди@@ 357
с. 357
безопас@@ 356
капи@@ 353
твер@@ 352
.b@@ 352
пад 350
маг@@ 350
дей 348
p 347
чай 346
ны@@ 346
войска@@ 346
выста@@ 344
напра@@ 341
май 341
лага@@ 339
ИД 338
пери@@ 334
шую 333
ка-@@ 333
чар@@ 332
нях 331
росту 329
рот 328
тую 327
выдан@@ 324
метра@@ 324
кл@@ 323
лед@@ 322
АН 320
мян@@ 319
обре@@ 319
тут 318
o 318
умо@@ 317
ай@@ 317
V 316
зани@@ 314
руж@@ 313
зня@@ 307
МВ@@ 305
цы@@ 304
фарма@@ 298
Я 298
S 295
ата@@ 294
ганд@@ 293
состо@@ 291
универ@@ 291
кого@@ 290
сур@@ 290
торы@@ 287
зита 286
ЭС 283
фар@@ 279
X 278
бя@@ 278
кож@@ 278
торая 277
есуэ@@ 277
интересо@@ 276
i 275
разу@@ 275
Дина@@ 274
ове@@ 271
нологи@@ 264
#@@ 263
пей@@ 259
сей@@ 259
ГУ@@ 259
гора@@ 259
СМ@@ 258
продажу 257
леж@@ 257
D 254
бель 251
доволь@@ 251
K@@ 250
итеб@@ 248
бо 247
• 246
гры@@ 242
G 242
гиле@@ 241
гады 241
гле@@ 240
але 240
аба@@ 239
разв@@ 238
h 237
чала@@ 237
журна@@ 234
кам@@ 232
КБ 231
обяза@@ 229
РИ@@ 229
стры@@ 226
камен@@ 225
АТЭ 222
неш@@ 222
спуб@@ 222
спар@@ 221
пры@@ 221
сама 220
c 219
ближа@@ 219
зербай@@ 218
F 217
часо@@ 216
нк@@ 215
говоры 214
склада@@ 213
запла@@ 213
пош@@ 212
на-@@ 207
специ@@ 206
гара@@ 205
po@@ 204
чере@@ 203
леп@@ 203
юри@@ 203
x@@ 202
лета@@ 202
ва-@@ 201
ары@@ 201
мес@@ 200
рам@@ 199
муще@@ 198
лым 198
асо@@ 197
мпера@@ 196
БН@@ 196
J@@ 193
предусмо@@ 193
торых 191
медици@@ 191
усе 190
туа@@ 189
еги@@ 187
ад 186
ить@@ 185
имп@@ 183
нама 183
Z@@ 182
шля@@ 181
страда@@ 180
зне@@ 177
нена 177
плю@@ 176
Е 175
демо@@ 174
&a@@ 173
як 173
тара 171
млен@@ 171
рэ@@ 165
щ 164
мля@@ 161
u 160
личе@@ 159
мэ@@ 158
эксп@@ 157
аген@@ 156
&apos; 155
навед@@ 154
Рэспублі@@ 153
P 152
Рэ@@ 151
R 151
чел@@ 150
гей 149
паса@@ 149
вак 149
выгля@@ 149
кура@@ 147
Содруже@@ 146
база@@ 144
M 143
тка@@ 142
дук@@ 141
ер-@@ 141
ула@@ 141
мыш@@ 141
беларус@@ 140
H 139
мак@@ 139
Гро@@ 139
заста@@ 139
N 137
Гом@@ 136
пер 136
B 136
пера@@ 135
O 134
тар 134
сем 134
сле 133
@ 133
правя@@ 132
эксплу@@ 132
чаты@@ 132
вязан@@ 130
яны 130
бай 130
ё 130
ЗС 128
чо@@ 127
ні@@ 127
Мя@@ 127
пра 126
ГА@@ 125
ляк@@ 123
заба@@ 123
пута@@ 122
рэспублі@@ 122
сф@@ 117
дзе 116
э 116
Мини@@ 116
І@@ 115
T 115
вай 114
марш@@ 113
гули@@ 111
кі 111
f 110
тэ@@ 110
E 109
x 106
нека@@ 105
алек@@ 103
вяза@@ 102
зму 101
Кан@@ 100
эр@@ 99
цити@@ 99
кай 99
j@@ 97
Ь 97
сход@@ 97
меш@@ 96
Вла@@ 95
граж@@ 94
сус@@ 94
`@@ 94
квар@@ 92
Ъ 92
кош@@ 91
льна 90
Y@@ 90
Ура@@ 90
ША 89
L 88
Бя@@ 86
щит@@ 86
прай@@ 86
справа 86
сажи@@ 86
Ў 85
W 85
стана@@ 84
зда@@ 84
ключа@@ 83
соз@@ 82
судо@@ 82
бара@@ 82
фу@@ 81
ыргыз@@ 81
канц@@ 80
изне@@ 80
бя 78
Мы@@ 77
снеж@@ 77
Ш 77
щад@@ 77
чны 76
www@@ 76
ць@@ 76
тары 76
еных 75
хам 75
пало@@ 75
лага 74
цар@@ 74
гас@@ 72
І 69
тны 68
цель@@ 68
ў 68
обор@@ 67
склад 67
прияти@@ 67
Ё@@ 67
і 67
шчы@@ 67
z 67
арт 65
Лі@@ 65
ства@@ 64
гала@@ 64
нако 63
каў@@ 62
Ся@@ 61
КД@@ 60
аса@@ 58
тын@@ 58
w 58
b 58
Q@@ 57
нагля@@ 57
павод@@ 56
K 56
газу 55
трудни@@ 55
ама@@ 55
гад@@ 55
шага 55
Маск@@ 54
мала@@ 54
нак 54
спубли@@ 53
ритор@@ 51
_ 51
толь@@ 51
рак 50
н. 50
тября 50
дзі@@ 50
J 50
руко@@ 49
Аз@@ 49
забе@@ 49
паве@@ 48
арус@@ 48
льны 48
і@@ 48
нению 47
хок@@ 47
ъ 46
свят@@ 46
гада@@ 46
ў@@ 45
цес@@ 45
лі@@ 45
льта@@ 45
$ 45
най 44
тэн@@ 44
хад@@ 43
орус@@ 43
ах@@ 43
сандра 42
U 42
одруже@@ 42
веда@@ 42
Y 42
фонду 41
чана 40
ъек@@ 40
рынку 40
,@@ 40
Ды@@ 40
гадо@@ 40
чы@@ 40
беларускай 39
вары@@ 39
лё@@ 39
жаны 38
лі 38
Дзя@@ 38
ныя 38
кае 36
цц@@ 36
чна 36
мку 36
дзе@@ 36
жы@@ 35
жо 34
парад@@ 34
’ 34
ерах 34
кале@@ 33
ці@@ 33
v 32
яго 32
даро@@ 32
” 32
Сад@@ 32
апр@@ 31
кумен@@ 31
СН@@ 31
нава@@ 31
вель@@ 31
тайме 30
с-служб@@ 30
ві@@ 30
руже@@ 29
нэ@@ 28
Z 28
што@@ 28
кары@@ 27
зде@@ 26
мі 26
канди@@ 26
шай 26
імя 26
транспар@@ 25
q@@ 25
ць 25
каб 25
што 25
змен@@ 24
нае 24
очер@@ 24
“ 24
выпад@@ 24
хак@@ 24
лука@@ 23
ванне 23
шча 23
цан@@ 23
Ы@@ 23
ФБ 22
чага 22
свету 22
Ю 22
каш@@ 21
итуа@@ 21
рублёў 21
БСЕ 21
спя@@ 20
суб 20
дак 20
наступ@@ 20
кате@@ 19
Беларусі 19
нет-@@ 19
насць 19
млр@@ 19
зла@@ 18
пі@@ 18
пэ@@ 18
выклю@@ 18
моц@@ 18
млрд 18
скі 18
ахо@@ 17
рэн@@ 17
наф@@ 17
джэн@@ 17
млн 17
вае 16
ні 16
аў 16
жэн@@ 16
дэн@@ 16
дэ@@ 16
º@@ 16
тары@@ 16
цыя 16
цца 15
давай 15
прад@@ 15
АТ 15
жэ@@ 15
ПАН 15
яй 15
ця@@ 14
БВ@@ 14
ДКБ 14
шы 14
вё@@ 14
Ъ@@ 14
груза@@ 14
юдж@@ 14
гадоў 13
кі@@ 13
кія 13
ач@@ 13
скія 13
# 13
могу@@ 13
паз@@ 13
Рэспублікі 13
краса@@ 13
каў 13
гуль@@ 13
= 13
ём 12
трл@@ 12
шы@@ 12
тры@@ 12
есу@@ 12
бры@@ 12
рэй@@ 12
pos@@ 12
аб 12
кага 12
рані@@ 11
чы 11
пакуль 11
преды@@ 11
индиви@@ 11
шэ@@ 11
* 11
рАз@@ 10
це-@@ 10
ваць 10
хто 10
лося 10
Дз@@ 10
ін@@ 10
― 10
тыс 10
егистри@@ 10
жыцц@@ 10
дыя@@ 10
вень 10
Ь@@ 10
руху 10
шча@@ 10
адва@@ 10
яму 9
іны 9
пача@@ 9
ровень 9
валі 9
ДТ@@ 9
чэ@@ 9
ыз@@ 9
 9
юць 9
сці@@ 9
зі@@ 9
сць 9
стэ@@ 9
сё@@ 9
j 9
ці 9
» 9
Ы 9
гі@@ 8
ёй 8
вю@@ 8
калі 8
Еў@@ 8
буй@@ 8
гі 8
він@@ 8
следа@@ 8
нім 8
ленне 8
таў 8
роў@@ 8
это@@ 8
дуаль@@ 8
é@@ 8
праве@@ 8
заха@@ 8
цтва 8
« 8
боку 8
гато@@ 7
® 7
разгля@@ 7
скай 7
нафта@@ 7
нікі 7
гэ@@ 7
мац@@ 7
лення 7
сі@@ 7
дзя@@ 7
пачатак 7
трэ@@ 7
бі@@ 7
чаны 7
нага 7
арган@@ 7
жні@@ 7
Й 7
вога 6
патрэ@@ 6
цаў 6
скага 6
хут@@ 6
​ 6
адз@@ 6
цыі 6
Ві@@ 6
евра@@ 6
ўні@@ 6
маста@@ 6
­ 6
ымі 6
срод@@ 6
пасту@@ 6
цкі 6
дзень 6
УС 6
хаке@@ 6
льна-@@ 6
\ 5
Санкт-@@ 5
сці 5
ўся 5
раў 5
мі@@ 5
ім 5
Ні@@ 5
ыя 5
тэк@@ 5
рых@@ 5
падчас 5
льнага 5
хі@@ 5
дзя 5
пару@@ 5
Міжнарод@@ 5
ваў 5
акра@@ 5
насці 5
нё@@ 5
грама@@ 5
лася 5
гэта 5
сакра@@ 4
вяр@@ 4
Еўрапей@@ 4
рады@@ 4
збо@@ 4
цэ@@ 4
ванні 4
ўскага 4
леда@@ 4
беларускі 4
сама@@ 4
Ў@@ 4
мяр@@ 4
валася 4
быў 4
яў 4
дзен@@ 4
Санк@@ 4
нікаў 4
Мінск 4
амаль 4
цт@@ 4
буда@@ 4
доў@@ 4
выкон@@ 4
маты@@ 4
супрацоўні@@ 4
эра@@ 4
чаныя 4
абла@@ 4
мяш@@ 4
выказа@@ 4
стак 4
цкай 4
патраба@@ 4
оў 4
ён 4
Брэ@@ 4
нік 4
сце 4
цкага 4
пасл@@ 4
глед@@ 3
коў 3
дае 3
рэа@@ 3
гэтым 3
ючы 3
Літ@@ 3
прэ@@ 3
лін@@ 3
іх 3
чэння 3
рэк@@ 3
толькі 3
чым 3
тэр@@ 3
краіне 3
даў 3
грэ@@ 3
няй 3
чыгу@@ 3
кандыда@@ 3
затрыман@@ 3
кіх 3
дэмакра@@ 3
якія 3
патра@@ 3
шае 3
Мінску 3
ўлады 3
асно@@ 3
волі 3
é 3
гэты 3
магчы@@ 3
наведа@@ 3
усё 3
наў 3
гэтага 3
людзей 3
перамо@@ 3
Q 3
будзе 3
беларускіх 3
днём 3
які 3
водзі@@ 3
ыя@@ 3
адзі@@ 3
ўля@@ 3
адбы@@ 3
дзеянні 3
ванняў 3
нават 3
дын@@ 3
пры 3
быць 3
супраць 3
якое 3
Нацыяналь@@ 3
перыя@@ 3
збі@@ 3
Ін@@ 3
 2
еў@@ 2
чылі 2
чнай 2
выпадку 2
месц@@ 2
выкарысто@@ 2
вамі 2
вобла@@ 2
скара@@ 2
тарам 2
краін 2
калек@@ 2
цыя@@ 2
скве 2
магчымасці 2
чнае 2
дапа@@ 2
адным 2
падзе@@ 2
снежня 2
паказ@@ 2
тыў@@ 2
тыя 2
скае 2
Мін@@ 2
яе 2
разі@@ 2
людзі 2
зідэн@@ 2
наву@@ 2
чэн@@ 2
іншых 2
рэд@@ 2
™ 2
Віцеб@@ 2
чынам 2
q 2
трыма@@ 2
вышэ@@ 2
сказаў 2
шыя 2
незалеж@@ 2
поў@@ 2
ляць 2
Паў@@ 2
біць 2
тамі 2
ніць 2
таму 2
баў 2
вання 2
лік@@ 2
годзе 2
ёма@@ 2
ствы 2
беларуская 2
дэр@@ 2
í@@ 2
маў 2
супрацоўніцтва 2
ўсё@@ 2
або 2
якая 2
сваёй 2
судар@@ 2
СМІ 2
наму 2
з-за 2
мпі@@ 2
яна@@ 2
практы@@ 2
ўсіх 2
чалавек 2
збро@@ 2
камі 2
партнё@@ 2
дзё@@ 2
некалькі 2
нямі 2
с-служба 2
ніко@@ 2
лёў 2
ваннем 2
ваецца 2
зняво@@ 2
стрэ@@ 2
адносі@@ 2
разам 2
накіра@@ 2
Беларуссю 2
бря 2
усіх 2
дзі 2
межа@@ 2
такія 2
Дынама 2
туры@@ 2
займа@@ 2
людз@@ 2
паміж 2
 2
вулі@@ 2
расійскага 2
абаро@@ 2
розні@@ 2
асабі@@ 2
є@@ 2
″ 2
ўка@@ 2
¬ 2
∙ 2
пракура@@ 2
ліся 2
няма 2
грамадзя@@ 2
ваючы 2
ўскі 2
эка@@ 1
Міка@@ 1
выніку 1
вацца 1
ходзі@@ 1
якасці 1
гэтыя 1
прастор@@ 1
маюць 1
~ 1
¾ 1
Садруж@@ 1
Украіны 1
розных 1
сусвет@@ 1
ўскай 1
нія 1
паведамілі 1
павінна 1
праві@@ 1
шч@@ 1
цыяналь@@ 1
акты@@ 1
пасля 1
некаль@@ 1
тычных 1
актыві@@ 1
стаў 1
трыман@@ 1
няў 1
чыў 1
супрац@@ 1
Мі@@ 1
ёму 1
лімпі@@ 1
каман@@ 1
намі 1
скі@@ 1
апазі@@ 1
цыйных 1
ліда@@ 1
папярэ@@ 1
аў@@ 1
спецыя@@ 1
сацыяльнай 1
падтрым@@ 1
Аб 1
цтве 1
мові@@ 1
джэння 1
чаных 1
ўнутра@@ 1
парадку 1
адміністра@@ 1
дакумен@@ 1
ўсё 1
зні@@ 1
цэнтры 1
адна@@ 1
пады@@ 1
чаць 1
ння 1
яналь@@ 1
яшчэ 1
ецца 1
чыць 1
гэтых 1
ёнаў 1
ліч@@ 1
насц@@ 1
à 1
паку@@ 1
шмат@@ 1
змя@@ 1
выя 1
галоў@@ 1
Аў@@ 1
маса@@ 1
йшлі 1
асоб@@ 1
` 1
мерка@@ 1
думку 1
заема@@ 1
дапамо@@ 1
﻿ 1
сябе 1
абавяза@@ 1
прадпрымальні@@ 1
Кі@@ 1
Магі@@ 1
замеж@@ 1
рэжы@@ 1
млі@@ 1
перавы@@ 1
блі@@ 1
іну 1
торыя 1
назі@@ 1
стэр@@ 1
студзеня 1
ціць 1
памі@@ 1
с-службы 1
пераш@@ 1
фі@@ 1
даста@@ 1
насцю 1
адкры@@ 1
тэта 1
дзяржаўнай 1
бяспекі 1
інфарма@@ 1
цыю 1
ўз@@ 1
дзеян@@ 1
ўсе 1
крэ@@ 1
ўва@@ 1
таксама 1
ААН 1
прабле@@ 1
юры@@ 1
Брэсц@@ 1
цё@@ 1
чаў 1
працу@@ 1
каля 1
â@@ 1
Õ@@ 1
канфіска@@ 1
адбылося 1
супраць@@ 1
заканадаўства 1
міжнарод@@ 1
дарож@@ 1
перад 1
выба@@ 1
згод@@ 1
знаходзіцца 1
яві@@ 1
тоў@@ 1
дэмі@@ 1
ргыз@@ 1
пачатку 1
можа 1
сваю 1
ўжо 1
ўленне 1
больш 1
кім 1
ўлен@@ 1
праводзі@@ 1
падар@@ 1
гістра@@ 1
падпісан@@ 1
супрацоўніцтве 1
скіх 1
атрыма@@ 1
сустрэ@@ 1
паведамі@@ 1
іза@@ 1
калі@@ 1
льні@@ 1
сістэ@@ 1
Міха@@ 1
віч 1
звязан@@ 1
падпі@@ 1
маца@@ 1
дзяржавы 1
ўра@@ 1
бліз@@ 1
мяня@@ 1
яўляюцца 1
ненні 1
цця 1
жыць 1
льнай 1
дзей@@ 1
месца 1
хві@@ 1
лін 1
віча 1
прыя@@ 1
Магілё@@ 1
Мінска 1
è@@ 1
шым 1
здароў@@ 1
¸ 1
ē@@ 1
яка@@ 1
нашай 1
былі 1
ўла@@ 1
вытвор@@ 1
чын@@ 1
аўтама@@ 1
Гродзен@@ 1
праў@@ 1
выклі@@ 1
шых 1
шэн@@ 1
працэ@@ 1
пяць 1
Еўропы 1
аднаго 1
чоў 1
Лукашэнкі 1
ткі 1
ā@@ 1
даў@@ 1
скім 1
тава@@ 1
дзел@@ 1
адной 1
ходжання 1
зацыі 1
ходзя@@ 1
таго 1
˚ 1
насель@@ 1
правер@@ 1
магчымасць 1
свабод@@ 1
стаў@@ 1
шымі 1
вымі 1
ü@@ 1
адка@@ 1
расій@@ 1
сталіцы 1
палі@@ 1
спі@@ 1
максі@@ 1
павінен 1
ваных 1
